a 50983
. 28603
in 15450
the 11337
on 8388
man 8087
is 7810
and 7649
of 7102
with 6375
woman 4136
, 4102
two 4019
are 3874
to 3246
people 3233
an 3047
at 3045
wearing 2707
young 2358
white 2298
shirt 2194
black 2082
his 2041
while 2018
blue 1944
men 1844
sitting 1803
red 1796
girl 1784
boy 1754
dog 1738
standing 1674
playing 1644
group 1606
street 1505
down 1441
walking 1423
front 1321
her 1306
holding 1283
one 1136
water 1095
three 1089
by 1088
women 1022
up 972
green 954
little 939
for 935
child 929
looking 920
as 909
outside 895
large 875
through 836
yellow 814
children 801
brown 799
person 781
their 754
from 754
hat 750
ball 746
into 741
small 696
other 685
next 683
dressed 658
out 653
some 651
over 625
building 619
running 602
riding 598
near 593
around 587
jacket 582
another 579
field 551
sidewalk 549
beach 542
crowd 541
orange 538
stands 514
jumping 511
pink 511
sits 506
behind 500
table 500
grass 477
snow 475
stand 469
background 469
&apos;s 466
girls 465
bike 463
city 460
air 452
asian 439
player 439
wall 437
looks 436
top 431
dogs 421
several 419
older 416
four 415
that 413
off 406
camera 405
park 402
talking 401
dress 400
something 392
lady 390
soccer 383
along 382
working 381
walks 381
hair 380
guitar 378
play 377
boys 375
together 372
smiling 370
food 365
game 356
gray 354
picture 354
has 348
plays 346
car 343
it 343
hand 341
holds 332
road 332
bench 326
old 321
glasses 319
pants 318
shorts 317
him 316
stage 315
sit 314
walk 313
side 311
carrying 310
baby 308
couple 305
them 297
bicycle 294
face 294
tree 290
taking 290
&quot; 290
male 289
race 289
pool 287
doing 283
each 283
rock 280
there 274
boat 273
watching 272
across 272
dirt 270
jeans 269
head 268
guy 266
area 266
day 265
blond 263
hands 258
room 258
jumps 257
back 256
ground 255
female 250
performing 250
ed 248
suit 248
being 248
who 247
baseball 247
eating 244
coat 243
striped 240
using 240
football 238
many 236
kids 236
band 236
watch 232
store 232
mouth 231
purple 231
its 229
horse 229
under 227
sign 226
this 224
he 222
long 222
runs 221
sunglasses 220
sand 218
construction 217
look 217
microphone 216
tennis 216
reading 213
players 213
clothing 212
or 211
t-shirt 210
workers 205
mountain 205
during 204
dark 204
toy 202
ocean 202
middle 201
basketball 201
uniform 198
elderly 198
climbing 197
past 197
watches 196
be 195
restaurant 195
helmet 194
against 193
train 192
work 192
rides 189
dancing 188
they 188
team 188
window 187
posing 185
about 185
chair 185
covered 182
re@@ 181
trees 181
wooden 179
having 179
waiting 179
all 179
very 177
outdoor 177
floor 177
swimming 177
getting 176
line 176
five 175
shirts 175
bag 174
colorful 171
trying 170
busy 169
-@@ 169
ice 168
skateboard 168
singing 167
fence 165
e@@ 164
jump 162
light 158
s@@ 158
inside 158
book 157
laying 156
market 155
hill 155
hats 154
bright 154
cart 153
cap 153
tan 152
high 152
truck 152
ride 151
grassy 149
making 149
big 148
kitchen 148
ing 148
clothes 148
cellphone 147
path 147
others 147
bus 146
someone 146
night 145
takes 145
brick 145
body 144
outfit 144
full 143
s 143
motorcycle 143
umbrella 143
towards 142
track 142
ready 141
enjoying 141
y 139
metal 138
river 138
piece 137
paper 137
board 137
es 137
she 135
swing 135
tank 133
trick 132
lake 132
worker 131
sweater 131
painting 130
open 130
shop 130
w@@ 129
above 129
adults 129
colored 128
music 127
ers 127
going 127
in@@ 126
house 124
vest 123
snowy 123
outdoors 123
stone 123
surrounded 123
crowded 123
stick 123
a@@ 123
hard 122
dance 122
phone 121
wave 121
run 121
uniforms 121
onto 121
photo 120
backpack 119
beside 119
smiles 119
shopping 119
subway 117
drinking 116
gear 116
toddler 115
kid 115
lot 115
set 115
pole 115
hockey 113
bridge 113
african 113
american 113
flowers 113
family 112
hanging 112
like 111
away 111
fire 111
gathered 111
event 111
police 110
catch 109
arms 109
costume 109
guys 108
bar 108
sleeping 107
d@@ 107
fountain 107
leaning 107
preparing 106
rope 106
object 106
beautiful 105
fishing 105
steps 104
after 104
o@@ 104
ts 104
machine 103
plaid 102
arm 101
k@@ 101
take 101
stairs 101
shirtless 100
glass 100
selling 99
ly 98
rocks 98
adult 98
shoes 98
sunny 97
ds 97
graffiti 97
chairs 97
parade 97
racing 97
setting 96
does 96
corner 96
volleyball 96
tall 95
throwing 95
er 95
frisbee 95
forest 95
pushing 94
pose 94
putting 94
wood 93
public 92
have 92
2 92
drink 91
both 91
ding 90
bed 90
slide 90
sh@@ 90
d 90
p 90
computer 90
view 90
ling 89
flag 89
laughing 89
couch 89
short 89
ramp 89
pictures 89
between 89
party 89
instruments 88
sun 88
plastic 88
equipment 88
ladies 88
reads 88
t@@ 88
p@@ 88
fish 87
sweatshirt 87
cowboy 86
bikes 86
which 85
poses 85
ting 85
woods 85
an@@ 85
way 84
playground 84
skirt 84
concrete 84
un@@ 84
trail 84
de@@ 84
winter 84
t 83
statue 83
beard 83
midair 83
yard 83
seated 82
toward 82
king 82
dock 81
cooking 81
just 81
en@@ 81
number 80
get 80
distance 80
what 80
l 79
bags 79
attire 78
where 78
beer 77
works 77
buildings 77
instrument 77
al@@ 77
left 77
f@@ 77
crossing 77
mother 77
six 77
tent 77
appears 77
filled 77
g@@ 77
station 76
sky 76
cross 76
vests 76
pe@@ 76
b@@ 76
cutting 76
blond-hair 76
pulling 76
rider 76
school 76
ti@@ 75
friends 75
middle-aged 75
lo@@ 75
show 75
ri@@ 75
der 75
right 74
ex@@ 74
shore 74
leaves 74
showing 73
bearded 73
nearby 73
cliff 73
carries 73
cream 73
apron 73
ro@@ 73
k 73
mountains 73
few 73
make 73
edge 72
skateboarder 72
bowling 72
horses 72
scarf 72
jersey 72
st@@ 72
cars 72
lined 72
grill 71
fruit 71
ps 71
spectators 71
time 71
arts 71
dresses 71
snowboarder 71
concert 70
art 70
performs 70
smile 70
vendor 69
ks 69
net 69
perform 69
m 69
court 69
driving 68
painted 68
structure 68
son 68
home 68
door 68
flower 68
di@@ 68
ar@@ 68
suits 68
martial 68
various 68
boots 68
box 68
vehicle 67
parked 67
flying 67
paint 67
goggles 67
younger 67
drums 67
cigarette 67
lying 67
shot 67
smoking 67
coffee 66
cup 66
new 66
gentleman 66
flags 66
parking 66
coming 66
indian 66
students 66
o 66
wet 65
eyes 65
la@@ 65
hit 65
bucket 65
ted 65
listening 65
y@@ 65
practicing 65
talks 65
rodeo 65
cement 65
rain 65
surfer 65
scene 64
bottle 64
no 64
swinging 64
lit 64
li@@ 64
u@@ 64
i@@ 64
prepares 64
cake 63
kicking 63
safety 63
rocky 63
ba@@ 63
bathing 63
st 63
newspaper 63
jackets 63
bu@@ 63
ladder 62
class 62
bunch 62
competition 62
waves 62
conversation 62
facing 62
audience 62
items 62
empty 62
costumes 62
m@@ 62
uses 62
bull 62
blanket 61
roof 61
gather 61
different 61
hold 61
onlookers 61
skateboarding 61
gloves 61
military 61
cleaning 60
tie 60
bicycles 60
giving 60
drinks 60
led 60
staring 60
biker 60
hot 60
desk 60
i 59
balloon 59
bowl 59
meal 59
pile 59
bikini 59
sliding 59
lawn 59
railing 59
can 59
3 59
er@@ 59
pointing 59
before 59
competing 59
gets 59
leaps 58
pre@@ 58
gathering 58
at@@ 58
g 58
display 58
ca@@ 58
chasing 58
sports 58
se@@ 57
ta@@ 57
ation 57
stop 57
bird 57
si@@ 57
match 57
marathon 57
bride 56
wedding 56
platform 56
c 56
feet 56
streets 56
classroom 56
speaking 56
vegetables 56
mask 56
hand@@ 55
skier 55
screen 55
helmets 55
ski 55
teams 55
wait 54
al 54
silver 54
country 54
kissing 54
counter 54
huge 54
tries 54
lights 54
pass 54
surfing 54
gold 54
animal 54
sings 54
basket 54
purse 53
climbs 53
do 53
father 53
urban 53
be@@ 53
seen 53
alley 53
traditional 53
place 53
l@@ 53
musicians 53
fighting 52
talk 52
stroller 52
site 52
break 52
end 52
go 52
skating 52
waits 52
sort 52
surfboard 52
w 51
walkway 51
ins 51
rail 51
lap 51
blowing 51
sunset 51
same 51
ping 51
throw 51
attempting 51
sing 51
violin 51
females 51
hole 50
ra@@ 50
kneeling 50
happy 50
to@@ 50
runner 50
th@@ 50
c@@ 50
waving 49
blond-haired 49
shoulder 49
scooter 49
ated 49
bald 49
christmas 49
el@@ 49
outfits 49
artist 49
ches 49
writing 49
business 49
signs 49
po@@ 49
tables 48
made 48
says 48
ck 48
ve 48
ter 48
life 48
alone 47
overlooking 47
ch 47
faces 47
bubbles 47
course 47
brunette 47
chinese 47
leg 47
officer 47
mirror 47
electric 46
ating 46
balloons 46
teenage 46
fla@@ 46
pa@@ 46
co@@ 46
legs 46
cafe 46
ded 46
con@@ 46
collar 46
gym 46
base 46
skate 46
headphones 46
close 46
giant 45
leans 45
ker 45
it@@ 45
mud 45
asleep 45
swim 45
fixing 45
car@@ 45
sticks 45
helping 45
per@@ 45
brightly 45
les 45
ma@@ 45
se 45
h@@ 45
van 44
cu@@ 44
do@@ 44
ons 44
sandals 44
enjoy 44
r@@ 44
clown 44
swings 44
makes 44
officers 44
meat 44
office 44
diving 44
barefoot 44
plate 44
stadium 44
hiking 44
foreground 44
over@@ 44
leather 44
ad@@ 44
umbrellas 44
wears 44
multicolored 43
e 43
cre@@ 43
goal 43
dark-haired 43
dirty 43
among 43
balls 43
musical 43
dancers 43
mo@@ 43
eat 43
passing 43
v@@ 43
su@@ 42
below 42
singer 42
washing 42
kick 42
golf 42
church 42
leash 42
toys 42
falling 42
deep 42
shallow 42
ate 42
photographer 42
traffic 42
tattoo 41
le 41
snow@@ 41
video 41
ls 41
flip 41
b 41
friend 41
; 41
laptop 41
ble 41
heads 41
pping 41
skiing 41
picking 41
doorway 41
n 41
males 40
resting 40
reaching 40
drawing 40
row 40
moving 40
move 40
ring 40
mar@@ 40
or@@ 40
accordion 40
paved 40
conversing 40
throws 40
members 40
sh 40
canoe 40
daughter 40
performance 40
digging 40
well 40
sweeping 39
catching 39
wear 39
shovel 39
am@@ 39
shows 39
sled 39
cra@@ 39
bar@@ 39
wheel 39
hoodie 39
lone 39
cold 39
fun 39
le@@ 39
sp@@ 39
bat 39
chef 39
foot 39
drum 39
relaxing 39
teeth 39
us 39
block 39
bicyclist 39
flies 39
here 39
tra@@ 38
prepare 38
lab 38
ce 38
tunnel 38
hugging 38
et 38
ke 38
atop 38
pro@@ 38
catches 38
el 38
garden 38
als 38
gives 38
cat 38
microscope 38
square 38
vi@@ 38
passes 38
en 38
sa@@ 38
robe 38
leaping 38
on@@ 38
coats 38
photograph 38
n@@ 38
sts 38
we@@ 37
hose 37
pond 37
sculpture 37
local 37
sleeps 37
rolling 37
desert 37
karate 37
shoulders 37
wrestling 37
carnival 37
&apos; 37
climb 37
ked 37
ders 37
tricks 37
upside 37
ea@@ 37
closed 37
lea@@ 37
underneath 37
tire 37
stunt 37
plants 37
individuals 36
jogging 36
trunks 36
project 36
roller 36
without 36
how 36
lots 36
these 36
beige 36
pier 36
splashing 36
gu@@ 36
telescope 36
4 36
formal 36
gun 36
points 36
sc@@ 36
bo@@ 36
cloth 36
driver 35
mat 35
ely 35
cane 35
z@@ 35
et@@ 35
cor@@ 35
held 35
opposing 35
sk@@ 35
ching 35
back@@ 35
customers 35
dances 35
low 35
so@@ 35
hiker 35
fight 35
trampoline 35
town 35
dra@@ 35
performer 35
produce 35
runners 35
gate 34
lays 34
circle 34
booth 34
crosswalk 34
no@@ 34
straw 34
ched 34
crying 34
cyclist 34
ved 34
themselves 34
gs 34
ch@@ 34
infant 34
wooded 34
mural 34
ates 34
cut 34
bicyclists 34
dinner 34
makeup 34
waters 34
matching 34
neck 34
ves 34
ws 34
fallen 34
tu@@ 34
including 34
surface 34
taken 34
shoe 34
ic@@ 34
stuffed 33
per 33
rest 33
sewing 33
sea@@ 33
pulled 33
hammer 33
books 33
nose 33
center 33
sw@@ 33
lunch 33
racket 33
attempts 33
third 33
blouse 32
picnic 32
himself 32
seven 32
gymnast 32
covering 32
hikers 32
sandy 32
dd@@ 32
de 32
lift 32
cted 32
goes 32
athlete 32
pulls 32
trash 32
balcony 32
opening 32
hoop 32
che@@ 32
help 32
me 32
style 32
grocery 32
ic 32
speaks 32
not 31
staircase 31
ined 31
boxes 31
puts 31
skis 31
softball 31
turn 31
chases 31
ying 31
indoor 31
me@@ 31
cow 31
heavy 31
slope 31
ging 31
ac@@ 31
teenagers 31
drives 31
pushes 31
pedestrians 31
deck 31
oriental 31
cheerleaders 31
foreign 31
ist 31
clear 31
kind 31
pitcher 31
overalls 30
log 30
kayak 30
wi@@ 30
wetsuit 30
ster 30
ship 30
head@@ 30
porch 30
device 30
bent 30
see 30
wrapped 30
shaking 30
festival 30
marching 30
steep 30
dancer 30
teenager 30
pouring 29
nice 29
evening 29
ans 29
boats 29
jean 29
kicks 29
land 29
cur@@ 29
reaches 29
sun@@ 29
puddle 29
luggage 29
moves 29
gentlemen 29
red-hair 29
enjoys 29
type 29
stream 29
tracks 29
khaki 29
swims 29
fingers 29
waterfall 29
man@@ 29
cloudy 29
chi@@ 29
round 29
bri@@ 29
golden 29
shaving 29
robes 29
ment 29
native 29
ap@@ 29
poles 28
sheet 28
sale 28
ledge 28
tri@@ 28
guard 28
paddling 28
ped 28
shoveling 28
red-haired 28
brown-haired 28
pot 28
protective 28
blocks 28
shed 28
lies 28
living 28
ful 28
ors 28
garb 28
string 28
wheelchair 28
d-@@ 28
soldier 28
op@@ 28
laugh 28
checking 28
attached 28
hangs 28
palm 28
sea 28
windows 28
arena 28
fair 28
podium 28
soldiers 28
image 28
es@@ 28
piano 28
em@@ 28
ge@@ 28
laundry 28
tractor 27
ler 27
happily 27
part 27
color 27
seat 27
clean 27
pped 27
denim 27
curb 27
try 27
hi@@ 27
railroad 27
bread 27
cking 27
eye 27
com@@ 27
juggling 27
ci@@ 27
bra@@ 27
id 27
ous 27
ear 27
saxophone 27
birds 27
hurdle 27
opposite 27
ir@@ 27
backyard 27
fast 27
balancing 27
kes 27
fabric 27
put 27
camouflage 27
mat@@ 27
par@@ 27
shooting 27
skirts 27
motorcycles 27
colors 27
r 27
ses 27
pipe 27
hula 27
airplane 27
bi@@ 26
goalie 26
inflatable 26
t-@@ 26
shade 26
mound 26
frame 26
dri@@ 26
du@@ 26
tops 26
multiple 26
ters 26
keyboard 26
closeup 26
stool 26
wine 26
either 26
water@@ 26
floating 26
tongue 26
garbage 26
wa@@ 26
york 26
groom 26
curly 26
sting 26
ru@@ 26
cones 26
knee 26
kiss 26
ty 26
landscape 26
fans 26
poster 26
pavement 26
use 26
polo 26
riders 26
cyclists 26
rugby 26
j@@ 25
plane 25
courtyard 25
eats 25
pan@@ 25
bikers 25
scaffolding 25
swimsuit 25
cting 25
cam@@ 25
tools 25
5 25
fall 25
walls 25
club 25
student 25
ter@@ 25
ings 25
musician 25
stra@@ 25
serving 25
buying 25
pair 25
step 25
ity 25
tube 25
laughs 25
appear 25
touching 25
nap 25
fresh 25
stri@@ 25
raft 25
bl@@ 25
married 25
shown 25
bottom 25
flight 25
professional 25
da@@ 25
goods 25
sell 25
cro@@ 25
pajamas 25
sporting 25
ho@@ 25
you 24
backwards 24
dis@@ 24
advertisement 24
flo@@ 24
crouches 24
kneels 24
sol@@ 24
fenced 24
cla@@ 24
carriage 24
direction 24
escalator 24
surf 24
cheering 24
gr@@ 24
pit 24
hooded 24
plant 24
pri@@ 24
sed 24
welding 24
bubble 24
caught 24
floral 24
ms 24
candy 24
min@@ 24
pic@@ 24
long-haired 24
japanese 24
acoustic 24
inter@@ 24
is@@ 24
backpacks 24
bucking 24
boards 24
marketplace 24
rests 24
dry 24
fi@@ 24
post 24
shaped 24
ss 24
german 24
socks 24
spray 24
suspended 24
ste@@ 24
gra@@ 24
hay 24
ces 24
om@@ 24
towel 24
bandanna 24
decorated 24
ears 24
sets 24
santa 24
jerseys 24
pu@@ 24
stove 23
neon 23
read 23
plaza 23
magazine 23
col@@ 23
bles 23
dining 23
raised 23
underwater 23
hood 23
ming 23
climber 23
pi@@ 23
summer 23
animals 23
mom 23
brushing 23
tw@@ 23
money 23
mu@@ 23
ally 23
te@@ 23
gh@@ 23
seems 23
harness 23
ver@@ 23
compete 23
amusement 23
pin@@ 23
airport 23
des 23
craft 23
aring 23
checkered 23
sheep 23
ss@@ 23
thrown 23
can@@ 23
paints 23
only 23
sink 23
sta@@ 23
presentation 23
ne@@ 23
sticking 23
t-shirts 23
sport 23
chain 23
sted 23
opponent 23
guitars 23
start 23
ck@@ 23
bro@@ 23
age 23
operating 22
qu@@ 22
ur@@ 22
grilling 22
atv 22
things 22
tub 22
firefighters 22
ish 22
shes 22
obstacle 22
print 22
vehicles 22
brush 22
um@@ 22
bank 22
rowing 22
gravel 22
fe@@ 22
attempt 22
figure 22
scuba 22
ar 22
participating 22
bending 22
action 22
hitting 22
cal 22
turning 22
individual 22
cone 22
feeding 22
ner 22
he@@ 22
good 22
tre@@ 22
heels 22
! 22
ning 22
muddy 22
orchestra 22
teacher 22
ered 22
policeman 22
wh@@ 22
referee 22
caucasian 22
sharing 22
spi@@ 22
herself 22
athletic 22
bow 22
bat@@ 22
trumpet 22
ght 22
e-@@ 22
examining 22
il@@ 22
bmx 22
also 21
ropes 21
machinery 21
ars 21
barbecue 21
brea@@ 21
gro@@ 21
map 21
sweat@@ 21
fl@@ 21
lane 21
discussion 21
ery 21
pen@@ 21
ceiling 21
passengers 21
cleans 21
( 21
eight 21
amp 21
sandwich 21
jumpsuit 21
bs 21
benches 21
but@@ 21
peace 21
ger 21
motocross 21
ats 21
stones 21
jungle 21
win@@ 21
navy 21
ai@@ 21
snowboarding 21
long-sleeved 21
wire 21
tents 21
mi@@ 21
bars 21
pen 21
racetrack 21
cha@@ 21
button 21
hallway 21
army 21
tool 21
pos@@ 21
ce@@ 21
cked 21
sli@@ 21
practice 21
tourists 21
chest 21
haircut 21
studio 21
photographs 21
drummer 21
wagon 21
ering 21
els 21
smoke 21
boun@@ 21
est 21
horseback 21
jo@@ 21
ops 21
racer 21
bushes 20
wn 20
song 20
she@@ 20
our 20
ens 20
hall 20
intersection 20
pull 20
ously 20
card 20
snowboard 20
dreadlocks 20
garage 20
but 20
swimmer 20
fruits 20
routine 20
act 20
) 20
fancy 20
carpet 20
bow@@ 20
coun@@ 20
groups 20
bea@@ 20
coach 20
bath 20
mustache 20
motorcyclist 20
half 20
tag 20
we 20
banner 20
indoors 20
cape 20
out@@ 20
lay 20
patio 20
bottles 20
rough 20
skateboards 20
dark-skinned 20
y-@@ 20
ahead 20
eastern 20
fly 20
neighborhood 20
funny 20
wide 20
puck 20
br@@ 20
first 20
headscarf 20
av@@ 20
tattooed 20
bel@@ 20
speech 20
bathroom 20
turns 20
chase 20
viewing 20
model 20
boxing 20
beam 19
sword 19
ges 19
snow-covered 19
ber@@ 19
squ@@ 19
boardwalk 19
helps 19
case 19
leading 19
hospital 19
baskets 19
hang 19
fle@@ 19
buy 19
lar 19
ni@@ 19
museum 19
observe 19
beverage 19
mobile 19
dro@@ 19
stopped 19
tur@@ 19
narrow 19
sized 19
py 19
petting 19
great 19
shoot 19
youth 19
bass 19
uniformed 19
dune 19
apple 19
eling 19
protest 19
shepherd 19
hillside 19
gre@@ 19
ines 19
hoops 19
slides 19
college 19
tattoos 19
crouching 19
enterta@@ 19
mohawk 19
possibly 19
ys 19
leaving 19
maroon 19
cricket 19
medical 19
vendors 19
heart 19
thers 19
sells 19
microphones 19
entrance 18
rubber 18
dr@@ 18
wing 18
member 18
mixing 18
mall 18
pan 18
folding 18
tor@@ 18
handstand 18
derby 18
container 18
fencing 18
parents 18
ear@@ 18
lin@@ 18
sleeveless 18
tile 18
clay 18
wheels 18
motorbike 18
ver 18
tro@@ 18
celebrating 18
birthday 18
stroll 18
squatting 18
fluffy 18
stretching 18
ati@@ 18
doors 18
excited 18
rural 18
balding 18
ornate 18
cardboard 18
vegetable 18
pieces 18
outstretched 18
mes 18
puppy 18
guitarist 18
fix 18
clo@@ 18
cts 18
more 18
live 18
go@@ 18
hugs 18
position 18
polka 18
belt 18
lines 18
item 18
choir 18
ethnic 18
moment 18
float 18
pl@@ 18
dishes 18
ag@@ 18
reach 18
seats 18
buckets 18
library 18
inspecting 18
f 18
mostly 18
calf 18
broom 18
.@@ 18
skates 18
naked 18
1 18
storefront 18
reflective 17
converse 17
whilst 17
balance 17
ary 17
flipping 17
doctor 17
stack 17
ju@@ 17
ribbon 17
cuts 17
coa@@ 17
apartment 17
castle 17
ies 17
il 17
sm@@ 17
unicycle 17
discussing 17
backs 17
lan@@ 17
crew 17
fisherman 17
space 17
fro@@ 17
emergency 17
ill 17
barrel 17
houses 17
swimmers 17
nets 17
tle 17
rink 17
pick 17
bear 17
blows 17
spraying 17
snack 17
protesting 17
ser@@ 17
har@@ 17
computers 17
bling 17
cks 17
lamp 17
catcher 17
firetruck 17
for@@ 17
free 17
ent@@ 17
ned 17
por@@ 17
nighttime 17
bowls 17
pine 17
cloth@@ 17
wrestle 17
ture 17
necklace 17
pat@@ 17
grinding 17
headband 17
conference 17
ns 17
following 17
stripes 17
stares 17
air@@ 17
got 17
gymnasium 17
pitch 17
top@@ 17
finish 17
shel@@ 17
coloring 17
smokes 17
spinning 17
finger 17
pla@@ 17
gar@@ 17
vers 17
jockey 17
tourist 17
scenery 17
sand@@ 17
furniture 17
ue 17
listens 17
hair@@ 17
skaters 17
end@@ 16
tied 16
ets 16
broken 16
factory 16
candles 16
duck 16
approaching 16
hits 16
intently 16
training 16
batter 16
ol@@ 16
chefs 16
skiers 16
engine 16
gas 16
chalk 16
ten@@ 16
farm 16
elephant 16
spread 16
motor@@ 16
loading 16
crane 16
flip-flops 16
&amp; 16
bur@@ 16
up@@ 16
lounging 16
cle@@ 16
cru@@ 16
ties 16
wed 16
dish 16
raises 16
horn 16
warm 16
hotel 16
redheaded 16
folded 16
name 16
sters 16
starting 16
pizza 16
cobblestone 16
ard 16
balances 16
branch 16
pottery 16
gi@@ 16
raising 16
television 16
jewelry 16
kite 16
excit@@ 16
pe 16
come 16
theater 16
engaged 16
stairway 16
observing 16
overhead 16
plates 16
im@@ 16
ave 16
dead 16
fully 16
bun@@ 16
ward 16
turned 16
electronic 16
rainy 16
carving 16
patient 16
sides 16
comfor@@ 16
pigeons 16
sofa 16
swe@@ 16
ine 16
pillow 16
london 16
-down 16
fireman 16
sprinkler 16
lifting 16
photographed 16
objects 16
x 16
village 16
clad 16
sses 16
&apos;t 16
crosses 16
surrounding 16
stru@@ 16
0@@ 16
speed 16
moped 16
ja@@ 16
beneath 16
th 16
spotted 15
binoculars 15
shovels 15
billboard 15
black@@ 15
3@@ 15
security 15
trucks 15
blo@@ 15
dusk 15
odd 15
story 15
numerous 15
dge 15
cli@@ 15
flowered 15
gging 15
trailer 15
directions 15
amongst 15
ction 15
cap@@ 15
ining 15
yel@@ 15
control 15
cal@@ 15
scarves 15
called 15
gri@@ 15
participate 15
casual 15
share 15
ages 15
1@@ 15
trunk 15
oms 15
sal@@ 15
na@@ 15
taxi 15
wife 15
plu@@ 15
calm 15
falls 15
cs 15
hun@@ 15
char@@ 15
terrain 15
repair 15
instru@@ 15
flips 15
straight 15
lu@@ 15
shaved 15
compet@@ 15
tray 15
downtown 15
teammate 15
partially 15
keep 15
forward 15
material 15
hu@@ 15
gged 15
-up 15
stare 15
smaller 15
thin 15
blow 15
deli@@ 15
barber 15
peering 15
ff@@ 15
follows 15
slightly 15
rows 15
aged 15
newborn 15
lit@@ 15
ator 15
photos 15
ssed 15
fan 15
hug 15
cameras 15
te 15
practices 15
crafts 15
ballerina 15
airborne 15
pretty 15
present 15
cool 15
ry 15
met@@ 15
hel@@ 15
telephone 15
leads 15
liquid 15
advertising 15
mer@@ 15
relax 15
unk 15
wings 15
papers 15
ct 15
performers 15
shades 15
der@@ 14
rainbow 14
shakes 14
gers 14
scra@@ 14
tal@@ 14
steel 14
biking 14
thered 14
donkey 14
part@@ 14
silly 14
tending 14
wr@@ 14
eds 14
repairs 14
check 14
caps 14
job 14
pit@@ 14
colle@@ 14
cook 14
athletes 14
fake 14
hap@@ 14
tail 14
push 14
shining 14
ge 14
shops 14
cans 14
carry 14
teaching 14
book@@ 14
cing 14
order 14
spon@@ 14
oven 14
ze 14
iner 14
my 14
coaster 14
angel 14
weaving 14
bin 14
praying 14
tower 14
firemen 14
tan@@ 14
skater 14
wading 14
been 14
splashes 14
pack 14
interacting 14
guns 14
off@@ 14
attention 14
repairing 14
ils 14
gift 14
cards 14
placing 14
machines 14
played 14
autumn 14
don@@ 14
fa@@ 14
upon 14
mid 14
ure 14
receiving 14
drill 14
most 14
weather 14
still 14
rollerblading 14
dad 14
ve@@ 14
consisting 14
modern 14
star 14
lounge 14
her@@ 14
wal@@ 14
guards 14
ou@@ 14
passenger 14
stic 14
glove 14
fli@@ 14
barrier 14
aisle 14
tow@@ 14
camel 14
rollerblades 14
bla@@ 14
races 14
overweight 14
tea 14
corn 14
world 14
homeless 14
grand@@ 14
sneakers 14
tion 14
admiring 14
lacrosse 14
observes 13
ballet 13
studying 13
tropical 13
eye@@ 13
paddles 13
lers 13
knit 13
ig@@ 13
saw 13
chainsaw 13
load 13
hut 13
learning 13
laptops 13
ures 13
customer 13
messy 13
carts 13
wheelbarrow 13
nature 13
landing 13
wor@@ 13
spoon 13
rickshaw 13
waterway 13
clapping 13
cool@@ 13
tires 13
science 13
high-@@ 13
burgundy 13
sau@@ 13
examines 13
debris 13
farmer 13
gymnastics 13
barri@@ 13
eggs 13
let 13
merchandise 13
ul@@ 13
rod 13
dough 13
pur@@ 13
sack 13
china 13
ke@@ 13
touches 13
co 13
dol@@ 13
ized 13
bite 13
dust 13
organ@@ 13
ang@@ 13
handing 13
hum@@ 13
dire@@ 13
knife 13
was 13
flute 13
if 13
ced 13
stomach 13
form 13
drive 13
filling 13
places 13
target 13
bystanders 13
ger@@ 13
fol@@ 13
let@@ 13
ban@@ 13
assi@@ 13
care 13
descent 13
cups 13
checks 13
entering 13
run@@ 13
groceries 13
greyhound 13
lifted 13
sweeps 13
tex@@ 13
sele@@ 13
dding 13
forehead 13
single 13
2@@ 13
waterfront 13
sail@@ 13
official 13
vie@@ 13
comes 13
ceremony 13
meeting 13
similar 13
paddle 13
dimly 13
exercise 13
cheer 13
bleachers 13
8 13
ral 13
attending 13
stat@@ 13
wheelie 13
sailing 13
rally 13
applying 13
tes 13
juice 13
keys 13
pes 13
mil@@ 13
browsing 13
headed 13
bare 13
lead 13
gestures 13
tr@@ 12
ence 12
kno@@ 12
artwork 12
wind@@ 12
trip 12
wild 12
picks 12
foot@@ 12
bamboo 12
bricks 12
pigtails 12
scooters 12
teen 12
fea@@ 12
paperwork 12
iron 12
fashioned 12
ham@@ 12
hur@@ 12
chicken 12
cheek 12
give 12
boulder 12
doll 12
presenting 12
wires 12
shoreline 12
wning 12
late 12
thumbs 12
soda 12
coo@@ 12
vil 12
cello 12
traveling 12
chan@@ 12
ian 12
exhibit 12
teal 12
covers 12
located 12
adjusting 12
fac@@ 12
multi@@ 12
heading 12
range 12
puppies 12
formation 12
diver 12
african-american 12
ponytail 12
bor@@ 12
tee 12
shadows 12
firefighter 12
logs 12
chatting 12
tired 12
screaming 12
cooks 12
far 12
fri@@ 12
show@@ 12
countryside 12
pon@@ 12
blankets 12
texas 12
lips 12
newly 12
seem 12
games 12
highway 12
beanie 12
cowboys 12
ical 12
work@@ 12
shoppers 12
dering 12
bagpipes 12
laundromat 12
wares 12
alleyway 12
creek 12
visiting 12
patterned 12
tv 12
speak 12
spanish 12
bit 12
mid-@@ 12
ant 12
listen 12
bloc@@ 12
serves 12
wrap 12
thin@@ 12
pillows 12
finished 12
ite 12
inspects 12
stops 12
suitcase 12
yarn 12
cycling 12
motorcyclists 12
watched 12
long-sleeve 12
hal@@ 12
opens 12
casually 12
dies 12
bly 12
newspapers 12
complete 12
tossing 12
so 12
bouquet 12
cat@@ 12
tackle 12
kers 12
tights 12
snowshoes 12
olympics 12
atta@@ 12
movie 12
street@@ 12
lecture 12
cage 12
sco@@ 12
knees 12
monument 12
craf@@ 12
amidst 12
biting 12
tape 12
beverages 12
dot 12
6 12
umpire 12
point 12
shirted 12
yoga 12
dom@@ 12
ga@@ 12
crossed 12
wrestler 12
kayaks 12
snowsuit 12
defen@@ 12
focused 12
torch 12
play@@ 11
pow@@ 11
ber 11
patch 11
camping 11
march 11
lighted 11
fire@@ 11
magazines 11
oper@@ 11
wea@@ 11
ills 11
mexican 11
sto@@ 11
thumb 11
constru@@ 11
ky 11
gg@@ 11
bre@@ 11
elev@@ 11
fre@@ 11
ka@@ 11
suspenders 11
sle@@ 11
pilot 11
stea@@ 11
medi@@ 11
hills 11
appar@@ 11
dusty 11
shi@@ 11
pers 11
bal@@ 11
super@@ 11
farmers 11
sons 11
chopping 11
ph@@ 11
underwear 11
gol@@ 11
rou@@ 11
placed 11
rub@@ 11
burning 11
injured 11
arcade 11
maneu@@ 11
racers 11
tin@@ 11
ways 11
banjo 11
rapids 11
larger 11
arch 11
carefully 11
cri@@ 11
jet 11
graph@@ 11
white-@@ 11
chess 11
dj 11
lem@@ 11
brother 11
mop 11
washer 11
kayaking 11
bon@@ 11
teens 11
oning 11
emer@@ 11
war@@ 11
tiny 11
ind@@ 11
wel@@ 11
sculp@@ 11
printed 11
rollerskating 11
chalkboard 11
backdrop 11
swimsuits 11
whom 11
strange 11
involving 11
tricycle 11
fr@@ 11
auditorium 11
location 11
sunlight 11
loom 11
cop 11
ately 11
record 11
department 11
rice 11
america 11
posed 11
beret 11
gathers 11
poor 11
khakis 11
side@@ 11
ent 11
dles 11
ations 11
floats 11
leaf 11
uni@@ 11
parachute 11
built 11
ill@@ 11
east 11
ily 11
hotdog 11
finishing 11
turquoise 11
sub@@ 11
venue 11
fer@@ 11
dives 11
gazes 11
black-haired 11
company 11
sem@@ 11
oranges 11
planting 11
ants 11
ddle 11
passersby 11
crouched 11
hol@@ 11
fu@@ 11
mug 11
scouts 11
cr@@ 11
salon 11
zes 11
viol@@ 11
visible 11
collared 11
stoc@@ 11
circular 11
lifts 11
scre@@ 11
low@@ 11
cute 11
playfully 11
mower 11
enthusia@@ 11
h 11
hike 11
tackling 11
stic@@ 11
kings 11
valley 11
the@@ 11
recei@@ 11
str@@ 11
involved 11
recl@@ 11
roun@@ 11
nail 11
para@@ 11
kit@@ 11
stacked 11
able 11
meet 11
done 11
ili@@ 11
motorized 11
ics 11
dress@@ 11
couples 11
celebration 11
surgery 11
trolley 11
supplies 11
fashion 11
closely 11
drawn 11
blazer 11
ny 11
2012 11
slo@@ 10
toddlers 10
ple 10
rooftop 10
frozen 10
thing 10
tribal 10
dive 10
nurses 10
spar@@ 10
conta@@ 10
appli@@ 10
helicopter 10
hea@@ 10
ski@@ 10
handrail 10
wheeler 10
-like 10
types 10
ong 10
smo@@ 10
maintenance 10
shoe@@ 10
tel@@ 10
trashcan 10
branches 10
washes 10
sur@@ 10
leap 10
aprons 10
stilts 10
sive 10
highchair 10
monitor 10
belts 10
demonstr@@ 10
stall 10
cotton 10
pins 10
walked 10
adjusts 10
booths 10
cluttered 10
creating 10
ele@@ 10
reflection 10
quickly 10
stepping 10
john 10
form@@ 10
experiment 10
ctor 10
foliage 10
sion 10
pathway 10
gardening 10
dy 10
asia 10
serve 10
stac@@ 10
horizon 10
stor@@ 10
clouds 10
morning 10
loo@@ 10
pet 10
ples 10
ca 10
wer 10
jack@@ 10
silhouette 10
nu@@ 10
shadow 10
earphones 10
sprayed 10
sym@@ 10
roadside 10
strapped 10
furry 10
dar@@ 10
hiding 10
league 10
goat 10
ad 10
past@@ 10
lens 10
pots 10
driveway 10
stu@@ 10
jeep 10
rafting 10
displays 10
pin 10
concentr@@ 10
medium 10
quarterback 10
gaze 10
twir@@ 10
scaffold 10
portrait 10
storm 10
blood 10
cel@@ 10
brushes 10
shiny 10
pads 10
va@@ 10
ged 10
lay@@ 10
gy@@ 10
ards 10
speaker 10
even 10
decorative 10
stroke 10
transportation 10
canvas 10
hind 10
butterfly 10
laden 10
activity 10
denti@@ 10
la 10
contraption 10
dumpster 10
facility 10
upward 10
shape 10
le-@@ 10
bul@@ 10
workshop 10
workout 10
leotard 10
crates 10
juggles 10
chewing 10
link 10
ty@@ 10
fur 10
lobby 10
peeking 10
fair@@ 10
tain 10
than 10
headdress 10
dal 10
displayed 10
unusual 10
vely 10
apart 10
laun@@ 10
floo@@ 10
menu 10
9@@ 10
cher 10
process 10
camels 10
sca@@ 10
dan@@ 10
asians 10
incline 10
oc@@ 10
row@@ 10
gallery 10
writes 10
gray-haired 10
# 10
ently 10
displaying 10
approaches 10
adv@@ 10
leggings 10
os 10
gesture 10
belongings 10
kn@@ 10
touch 10
pol@@ 10
trench 10
will 10
button@@ 10
ow@@ 10
med 10
parasailing 10
sideways 10
embracing 10
cheese 10
oned 10
numbers 10
ol 10
surfs 10
boxer 10
heavily 10
ght@@ 10
celebrate 10
shing 10
cti@@ 10
products 10
dun@@ 10
recording 10
ement 10
lighting 10
power 10
cover 10
decor@@ 10
second 10
obser@@ 10
sprink@@ 9
road@@ 9
gazing 9
packing 9
climb@@ 9
illing 9
almost 9
-colored 9
bends 9
classic 9
onal 9
stoop 9
cul@@ 9
iling 9
cast 9
strolls 9
decorations 9
kilt 9
jogs 9
paint@@ 9
pale 9
operates 9
elmo 9
buil@@ 9
employees 9
fen@@ 9
service 9
camp 9
ents 9
gle 9
nic@@ 9
pot@@ 9
section 9
shaggy 9
mon@@ 9
task 9
cab@@ 9
staff 9
boarding 9
son@@ 9
bicycling 9
painter 9
one-@@ 9
sniffing 9
lou@@ 9
acting 9
joy 9
tiled 9
breakdancing 9
sparring 9
attractive 9
own 9
upset 9
slee@@ 9
scar@@ 9
ffs 9
raincoat 9
fore@@ 9
french 9
fil@@ 9
ha@@ 9
gradu@@ 9
brass 9
ingredients 9
tags 9
grabbing 9
design 9
containing 9
hor@@ 9
mix@@ 9
handle 9
uring 9
cab 9
rug 9
cellphones 9
chers 9
green@@ 9
environment 9
pinata 9
explor@@ 9
downhill 9
and@@ 9
sorting 9
sure 9
mark 9
fin@@ 9
draw 9
mechan@@ 9
projector 9
bouncing 9
gli@@ 9
pumpkin 9
wind 9
won@@ 9
tripod 9
scenic 9
pencil 9
sailboat 9
accident 9
chocolate 9
ance 9
k-@@ 9
inging 9
checkers 9
fishes 9
featuring 9
sawing 9
rab@@ 9
handed 9
wn@@ 9
tournament 9
gesturing 9
really 9
crowds 9
treat 9
dragging 9
conver@@ 9
fell 9
interesting 9
drib@@ 9
motion 9
weigh@@ 9
peer 9
scot@@ 9
gal@@ 9
body@@ 9
blue-@@ 9
ly-@@ 9
soap 9
beads 9
arm@@ 9
atm 9
gy 9
sledding 9
kee@@ 9
chopsticks 9
news 9
warehouse 9
mb@@ 9
monkey 9
photographers 9
cer@@ 9
oping 9
relea@@ 9
industrial 9
european 9
jumped 9
diner 9
ticket 9
icy 9
images 9
short-haired 9
sad 9
notebook 9
rings 9
din@@ 9
stump 9
feat@@ 9
bath@@ 9
temple 9
known 9
stance 9
curly-haired 9
turban 9
cloud 9
potato 9
ob@@ 9
designs 9
pattern 9
two-@@ 9
ducks 9
pain 9
muzzle 9
afternoon 9
grabs 9
motor 9
clowns 9
ran@@ 9
ara@@ 9
tight 9
au@@ 9
sprin@@ 9
foods 9
peac@@ 9
love 9
4@@ 9
conven@@ 9
speeding 9
notes 9
deer 9
figures 9
tun@@ 9
break@@ 9
tal 9
ki@@ 9
antly 9
cleaner 9
tips 9
comple@@ 9
toothbrush 9
sha@@ 9
muzzled 9
fo@@ 9
olympic 9
sty@@ 9
begins 9
vo@@ 9
ten 9
5@@ 9
protesters 9
unique 9
jumper 9
doesn 9
wig 9
score 9
riot 9
itive 9
loaded 9
rifle 9
egg 9
cigar 9
bathtub 9
digital 9
act@@ 9
exten@@ 9
series 9
canadian 9
am 8
husband 8
barefooted 8
down@@ 8
0 8
much 8
too 8
forested 8
arri@@ 8
communic@@ 8
kie 8
fat 8
scrubs 8
napping 8
lin 8
darkened 8
positi@@ 8
four@@ 8
frying 8
sen@@ 8
barbecu@@ 8
hou@@ 8
free@@ 8
teammates 8
fun@@ 8
workman 8
knee-@@ 8
brief@@ 8
somewhere 8
mouths 8
strolling 8
cries 8
surgical 8
spins 8
complex 8
plain 8
had 8
sear@@ 8
til@@ 8
skills 8
redhead 8
transit 8
amount 8
visor 8
vending 8
labeled 8
check@@ 8
hammock 8
masks 8
shelf 8
conne@@ 8
intervie@@ 8
splashed 8
moo@@ 8
waiter 8
stuff 8
spe@@ 8
parent 8
stuck 8
mic 8
edly 8
companion 8
stretches 8
raining 8
hawaiian 8
hau@@ 8
pr@@ 8
arr@@ 8
pper 8
hydrant 8
gui@@ 8
campfire 8
pee@@ 8
draped 8
lowing 8
earth 8
spot 8
midst 8
ssion 8
synchronized 8
skinny 8
ple@@ 8
casino 8
squeezing 8
nun 8
suit@@ 8
cases 8
say 8
cherry 8
dryer 8
ppy 8
refle@@ 8
f-@@ 8
underground 8
mountainous 8
unhappy 8
protect 8
flannel 8
jenga 8
stry 8
variety 8
shy 8
call 8
strollers 8
tery 8
punch 8
purses 8
toil@@ 8
measuring 8
package 8
qui@@ 8
hit@@ 8
mix 8
uts 8
artists 8
signing 8
gen@@ 8
spark@@ 8
candle 8
times 8
rugs 8
travel 8
ok 8
tered 8
stream@@ 8
spir@@ 8
wheeled 8
directing 8
lively 8
demonstration 8
halloween 8
dir@@ 8
fountains 8
ior 8
u 8
grou@@ 8
pocket 8
buried 8
waist 8
plank 8
because 8
school@@ 8
pack@@ 8
aid 8
banners 8
punching 8
cheerleading 8
social 8
mess@@ 8
congreg@@ 8
maybe 8
canoes 8
bra 8
vac@@ 8
zi@@ 8
gown 8
musta@@ 8
bundle 8
boxers 8
stringed 8
mess 8
judges 8
foam 8
retrie@@ 8
ving 8
babies 8
bananas 8
easel 8
peers 8
filming 8
walmart 8
monk 8
ssions 8
harmonica 8
pop 8
crayons 8
monopoly 8
skies 8
ess 8
expre@@ 8
rock@@ 8
sil@@ 8
izing 8
lanterns 8
daytime 8
cker 8
tying 8
bridesmaids 8
must@@ 8
laboratory 8
angle 8
completed 8
cit@@ 8
pt 8
gla@@ 8
lon@@ 8
sprays 8
land@@ 8
chis@@ 8
ab@@ 8
homemade 8
vintage 8
when 8
stre@@ 8
pours 8
spring 8
conductor 8
win 8
muscular 8
mixer 8
monitors 8
bron@@ 8
nee@@ 8
batman 8
grand 8
rails 8
battle 8
dal@@ 8
remo@@ 8
roller-@@ 8
looked 8
tack@@ 8
tackled 8
hardwood 8
establishment 8
spect 8
abandoned 8
examine 8
ff 8
columns 8
trains 8
ese 8
state 8
ail 8
backseat 8
pra@@ 8
strings 8
speci@@ 8
tuxe@@ 8
tutu 8
product 8
kisses 8
vic@@ 8
india 8
grab 8
hammering 8
commercial 8
kaya@@ 8
11 8
thou@@ 8
dly 8
glo@@ 8
employee 8
mounted 8
ise 8
bedroom 8
ia 8
tug-of-war 8
spotlight 8
every@@ 8
fireworks 8
grinds 8
acrobatic 8
deci@@ 8
dotted 8
licking 8
nails 8
aquarium 8
striking 8
tiger 8
draws 8
ind 8
poodle 8
lower 8
crow@@ 8
tour 8
packed 8
tic 8
religious 8
bartender 8
crashing 8
bikinis 8
poli@@ 8
dit@@ 8
create 8
colli@@ 8
lands 8
waterskiing 8
ram@@ 8
war 8
destination 8
- 8
fields 8
tured 8
followed 8
ads 8
deser@@ 8
jockeys 8
murky 8
victory 8
pay 8
navigates 8
carrier 8
canal 8
histor@@ 8
speeds 8
human 8
prepared 8
graffiti@@ 8
int 8
europe 8
finger@@ 8
focus 8
op 8
lion 7
bund@@ 7
slacks 7
mcdonald 7
shiel@@ 7
olive 7
hotdogs 7
ascen@@ 7
though 7
supermarket 7
trave@@ 7
meadow 7
crops 7
main 7
railings 7
some@@ 7
ddles 7
tubes 7
rustic 7
starring 7
woodland 7
pony 7
val 7
ols 7
adorned 7
bands 7
completing 7
trophy 7
nude 7
written 7
clut@@ 7
may 7
bush 7
fork 7
-sized 7
dig 7
squir@@ 7
mers 7
lush 7
stores 7
puppet 7
cartwheel 7
find 7
mitt 7
ound 7
elaborate 7
feather 7
ones 7
marble 7
facial 7
irs 7
miniature 7
trotting 7
melon 7
thick 7
-looking 7
mascot 7
hoe 7
heavyset 7
ung 7
fog 7
evil 7
rest@@ 7
patrons 7
snacks 7
vering 7
prints 7
flat 7
craw@@ 7
beating 7
resort 7
dum@@ 7
mowing 7
desks 7
crawls 7
ggling 7
legged 7
videota@@ 7
elder 7
exhi@@ 7
ition 7
ators 7
policemen 7
conducting 7
purchase 7
tracksuit 7
sked 7
radio 7
9 7
pea@@ 7
skyline 7
wood@@ 7
pie 7
farm@@ 7
shine 7
aving 7
hula-@@ 7
flu@@ 7
information 7
divers 7
zone 7
pointed 7
sel@@ 7
ker@@ 7
level 7
sit@@ 7
laid 7
roller@@ 7
separate 7
berry 7
snowball 7
pans 7
anti@@ 7
beat 7
sy 7
pad 7
colorfully 7
support 7
collie 7
foggy 7
vacuum 7
stripe 7
beers 7
cally 7
picket 7
bongo 7
fuzzy 7
ctions 7
pirate 7
cheerleader 7
ey 7
waitress 7
contro@@ 7
texting 7
advertisements 7
were 7
shawl 7
die 7
watermelons 7
cargo 7
ends 7
presents 7
illuminated 7
shower 7
blower 7
recor@@ 7
snor@@ 7
buffet 7
kick@@ 7
peaks 7
pushed 7
parachu@@ 7
citizens 7
fresh@@ 7
contest 7
turkey 7
crate 7
eled 7
press@@ 7
hop@@ 7
pigeon 7
casting 7
discuss 7
cigarettes 7
usa 7
bounds 7
upright 7
face-@@ 7
pum@@ 7
rolls 7
electri@@ 7
cin@@ 7
cameraman 7
harbor 7
mul@@ 7
guide 7
tarp 7
begin 7
warm@@ 7
life@@ 7
wraps 7
pil@@ 7
soup 7
sty 7
crosscountry 7
ature 7
vis@@ 7
rise 7
squats 7
gor@@ 7
p-@@ 7
aqua 7
newlywed 7
warming 7
arrow 7
arti@@ 7
ments 7
marked 7
alli@@ 7
barrels 7
surfers 7
seafood 7
fying 7
barely 7
treadmill 7
ace 7
bits 7
sold 7
ste 7
s-@@ 7
dyed 7
dump 7
exercising 7
leopard 7
rag 7
rafts 7
sin@@ 7
activities 7
logo 7
ingly 7
oil 7
flock 7
embra@@ 7
silhouetted 7
cave 7
ened 7
chased 7
quet 7
reception 7
hispanic 7
go-cart 7
indi@@ 7
sl@@ 7
somebody 7
deli 7
fedora 7
quiet 7
bows 7
wash 7
vibrant 7
daily 7
named 7
fetch 7
plan@@ 7
entertain 7
seating 7
dinosaur 7
ggle 7
cannon 7
elementary 7
wilderness 7
accompanied 7
return 7
greyhounds 7
que@@ 7
shoo@@ 7
trans@@ 7
marker 7
? 7
bum@@ 7
semi-@@ 7
conte@@ 7
desig@@ 7
ceremonial 7
exiting 7
pops 7
on-@@ 7
character 7
ites 7
hear@@ 7
topless 7
sunbathing 7
ser 7
stair 7
plea@@ 7
fill 7
fet@@ 7
wil@@ 7
disc 7
gry 7
jumpsuits 7
opy 7
sail 7
tress 7
occu@@ 7
chil@@ 7
vaul@@ 7
typing 7
british 7
fron@@ 7
broad 7
waterside 7
skydiving 7
celebr@@ 7
medieval 7
cash 7
fit 7
festi@@ 7
semi 7
ically 7
sac@@ 7
tow 7
ales 7
framed 7
nine 7
drying 7
chin 7
await 7
pou@@ 7
ultimate 7
nurse 7
year 7
cocon@@ 7
armo@@ 7
designed 7
confu@@ 7
characters 7
pyramid 7
vacuuming 7
dex 7
sleeves 7
necklaces 7
x@@ 7
ordering 7
saris 7
styli@@ 7
axe 7
7 7
blurred 7
8@@ 7
gling 7
dre@@ 7
lining 7
refer@@ 7
checkout 7
xylophone 7
amid 7
orn@@ 7
holi@@ 7
wrestlers 7
scientist 7
doctors 7
dolls 7
travels 7
sel 7
sidelines 7
rollerskates 7
snowboards 7
bend 7
fiel@@ 7
fellow 7
dec@@ 7
cathe@@ 7
6@@ 7
profession@@ 7
cover@@ 7
confetti 7
political 7
upwards 7
sculptures 7
asking 7
congre@@ 7
hoo@@ 7
crest 7
defender 7
pul@@ 6
ley 6
system 6
gliding 6
clarin@@ 6
metro 6
seesa@@ 6
soars 6
youths 6
amu@@ 6
ath 6
shake 6
kery 6
rubs 6
sharp 6
jave@@ 6
assem@@ 6
regi@@ 6
assembl@@ 6
ven 6
ppers 6
four-@@ 6
spatula 6
cardigan 6
scooping 6
oth 6
gap 6
muslim 6
burger 6
enter 6
slopes 6
canyon 6
ight 6
zoo 6
prin@@ 6
cess 6
sec@@ 6
bot@@ 6
toms 6
cop@@ 6
watering 6
tar@@ 6
da 6
drum@@ 6
probably 6
terrier 6
dragon 6
rush 6
weapon 6
pets 6
maj@@ 6
spots 6
grills 6
cher@@ 6
sn@@ 6
gin@@ 6
hour 6
makeshift 6
propped 6
panse 6
exper@@ 6
stirring 6
off-camera 6
favorite 6
waterskier 6
wake@@ 6
tends 6
talent 6
fer 6
ther 6
fam@@ 6
nap@@ 6
wra@@ 6
teddy 6
hook 6
sunshine 6
swords 6
tomatoes 6
ious 6
pipes 6
raking 6
stati@@ 6
onary 6
scaling 6
red-@@ 6
rimmed 6
goatee 6
pacifier 6
lime 6
young@@ 6
stunts 6
less 6
hear 6
ner@@ 6
mass@@ 6
mates 6
within 6
wineglasses 6
gger 6
relaxes 6
stretched 6
strike 6
oming 6
infla@@ 6
whis@@ 6
un 6
mesh 6
soft 6
ravine 6
tly 6
surf@@ 6
boarder 6
woven 6
message 6
length 6
challenge 6
renaissance 6
lean 6
gues 6
skull 6
ef 6
questi@@ 6
lanes 6
efs 6
register 6
volunte@@ 6
submer@@ 6
arrangement 6
nightclub 6
domin@@ 6
beg@@ 6
inning 6
tablecloth 6
flowery 6
knitting 6
pitching 6
personnel 6
tomat@@ 6
riverbank 6
shingles 6
words 6
expression 6
poodles 6
pillar 6
curi@@ 6
merry-go-round 6
grasping 6
shack 6
raise 6
fort 6
zing 6
occur@@ 6
shorter 6
mouse 6
roll 6
girl@@ 6
rack 6
overlook 6
moun@@ 6
sample 6
licks 6
razor 6
socializing 6
ya@@ 6
professor 6
sno@@ 6
snap@@ 6
instal@@ 6
tor 6
desc@@ 6
parachutes 6
ct@@ 6
en-@@ 6
identical 6
ant@@ 6
lovely 6
tree-lined 6
mountaintop 6
business@@ 6
snowman 6
rea@@ 6
noses 6
maged 6
splash 6
ile 6
glacier 6
handbag 6
relay 6
marsh@@ 6
perched 6
mittens 6
ti 6
cent@@ 6
badge 6
spo@@ 6
pass@@ 6
liquor 6
pid@@ 6
cy 6
cler@@ 6
harvesting 6
operated 6
superman 6
scrat@@ 6
helmeted 6
tau@@ 6
scape 6
whistle 6
magni@@ 6
jewish 6
cer 6
those 6
rain@@ 6
cakes 6
ass@@ 6
pelling 6
gloved 6
poun@@ 6
day@@ 6
trimming 6
appe@@ 6
ess@@ 6
hunched 6
sleep 6
organ 6
forming 6
open-@@ 6
arch@@ 6
cats 6
ball@@ 6
film 6
dou@@ 6
soa@@ 6
goo@@ 6
squad 6
microscopes 6
proje@@ 6
sundress 6
xi@@ 6
shouting 6
rolled 6
vices 6
sooners 6
progress 6
umn 6
peach 6
main@@ 6
voc@@ 6
white-haired 6
circus 6
lipstick 6
used 6
afri@@ 6
dos 6
hip@@ 6
quad 6
seattle 6
iners 6
fish@@ 6
lie 6
ribbons 6
tou@@ 6
zy 6
re-@@ 6
stars 6
piles 6
pet@@ 6
ade 6
huddled 6
handheld 6
terminal 6
lar@@ 6
scent 6
camp@@ 6
illed 6
walkers 6
cou@@ 6
tail@@ 6
ie 6
bunny 6
hon@@ 6
sleeve 6
follow 6
unloading 6
oun@@ 6
ffy 6
bill@@ 6
dark@@ 6
alco@@ 6
inclu@@ 6
blu@@ 6
util@@ 6
hearts 6
pled 6
ond 6
thre@@ 6
ino@@ 6
veget@@ 6
wheelchairs 6
lun@@ 6
skateboarders 6
arrive 6
tails 6
band@@ 6
stride 6
special 6
mature 6
popcorn 6
sprinklers 6
legos 6
tely 6
toe 6
ided 6
sister 6
dle 6
kiosk 6
boogie 6
portable 6
well-dressed 6
costum@@ 6
je@@ 6
test 6
ised 6
10 6
conce@@ 6
anci@@ 6
surge@@ 6
ises 6
sla@@ 6
thy 6
skim@@ 6
span@@ 6
mini@@ 6
scissors 6
cau@@ 6
ires 6
rusty 6
off-@@ 6
dessert 6
miami 6
prou@@ 6
scattered 6
seagulls 6
cl@@ 6
missing 6
ital@@ 6
goers 6
cem@@ 6
wet@@ 6
contem@@ 6
kicked 6
prote@@ 6
swan 6
weight 6
strea@@ 6
fashi@@ 6
gerly 6
emp@@ 6
key 6
tea@@ 6
fra@@ 6
parallel 6
mule 6
sor@@ 6
intere@@ 6
ble@@ 6
sho@@ 6
ility 6
fixes 6
senior 6
old-@@ 6
bby 6
pick@@ 6
bulldozer 6
padd@@ 6
mini-@@ 6
dges 6
given 6
ny@@ 6
v 6
ience 6
nearly 6
university 6
photographing 6
pom@@ 6
sign@@ 6
holes 6
gowns 6
national 6
badminton 6
sky@@ 5
wards 5
smoo@@ 5
mou@@ 5
phones 5
ligh@@ 5
respon@@ 5
burgers 5
sage 5
antique 5
zer 5
torches 5
frog 5
jewel@@ 5
welcome 5
hom@@ 5
ot 5
pride 5
take@@ 5
rem@@ 5
bin@@ 5
vision 5
consul@@ 5
sour@@ 5
cheer@@ 5
disney 5
ghtly 5
exam@@ 5
island 5
tongs 5
cent 5
verti@@ 5
sat@@ 5
angels 5
bru@@ 5
robot 5
ities 5
pauses 5
gan 5
combat 5
mirro@@ 5
lam@@ 5
ma 5
convention 5
jack 5
ici@@ 5
yo@@ 5
yo 5
zard 5
cav@@ 5
ox@@ 5
ative 5
sks 5
popu@@ 5
key@@ 5
mail@@ 5
commun@@ 5
tted 5
bing 5
cola 5
iz@@ 5
stret@@ 5
pons 5
read@@ 5
tat@@ 5
chat 5
bay 5
star@@ 5
passi@@ 5
physi@@ 5
sk 5
ren@@ 5
wakeboard 5
vet@@ 5
mannequin 5
balan@@ 5
ven@@ 5
memorial 5
adm@@ 5
self 5
na 5
kel 5
stock 5
sou@@ 5
z 5
hill@@ 5
asphal@@ 5
mounta@@ 5
shado@@ 5
san 5
whole 5
carri@@ 5
loa@@ 5
oni@@ 5
jun@@ 5
marches 5
high@@ 5
roo@@ 5
ep 5
conditions 5
ge-@@ 5
banan@@ 5
tage 5
haired 5
bag@@ 5
uk@@ 5
our@@ 5
ize 5
tumbling 5
inf@@ 5
ssy 5
punk 5
pai@@ 5
bee 5
cir@@ 5
appro@@ 5
sky-@@ 5
chips 5
00 5
hero 5
accep@@ 5
pedestri@@ 5
assor@@ 5
ing@@ 5
latin 5
basket@@ 5
rac@@ 5
tiles 5
saxoph@@ 5
gham 5
tigh@@ 5
sim@@ 5
ld 5
pun@@ 5
snap 5
stro 5
natu@@ 5
woo@@ 5
passer@@ 5
attentiv@@ 5
bull@@ 5
massi@@ 5
fran@@ 5
blur@@ 5
iti@@ 5
den@@ 5
attendant 5
thor@@ 5
tend 5
roses 5
rail@@ 5
descen@@ 5
drop 5
fisher@@ 5
americ@@ 5
rd 5
caricature 5
bir@@ 5
strum@@ 5
lable 5
bac@@ 5
cookies 5
o-@@ 5
bob 5
tambour@@ 5
pied 5
alls 5
consi@@ 5
writ@@ 5
odle 5
lean@@ 5
bil@@ 5
gum 5
poin@@ 5
oo@@ 5
nike 5
assistant 5
store@@ 5
fic@@ 5
rist@@ 5
ier 5
surroun@@ 5
clu@@ 5
ster@@ 5
mon 5
pro 5
ina 5
gh 5
cockpit 5
gent 5
tter 5
rit@@ 5
prom@@ 5
scout 5
husky 5
ore@@ 5
mode@@ 5
stle 5
lanter@@ 5
amish 5
obama 5
thro@@ 5
ssi@@ 5
pub 5
manu@@ 5
under@@ 5
lingerie 5
kimonos 5
mis@@ 5
ggles 5
ial 5
tem@@ 5
them@@ 5
s. 5
phants 5
igh 5
mcdonalds 5
jap@@ 5
im 5
snowboar@@ 5
fir@@ 5
ket@@ 5
maid 5
port 5
ut 5
cowgirl 5
accompan@@ 5
tuni@@ 5
contin@@ 5
ipod 5
pli@@ 5
mmed 5
navig@@ 5
heal@@ 5
va 5
chant 5
champagne 5
lasso 5
chu@@ 5
law 5
ford 5
mate 5
shar@@ 5
swim@@ 5
middle-@@ 5
ign@@ 5
bol 5
spect@@ 5
mor@@ 5
ther@@ 5
ird 4
gam@@ 4
propane 4
villa@@ 4
um 4
direct@@ 4
brochure 4
loun@@ 4
trem@@ 4
volkswagen 4
mascara 4
automobile 4
cani@@ 4
structures 4
speedo 4
smith 4
chop@@ 4
bor 4
tru@@ 4
ori@@ 4
mea@@ 4
statues 4
circuit 4
q 4
deere 4
acks 4
ater 4
bud@@ 4
plat@@ 4
anim@@ 4
bloo@@ 4
one@@ 4
ids 4
sages 4
kin 4
atten@@ 4
swa@@ 4
kilts 4
steaks 4
ute 4
trombone 4
iller 4
gaphone 4
spin@@ 4
kitchenaid 4
toast 4
substance 4
intri@@ 4
cupcakes 4
hamburgers 4
tim 4
tons 4
-covered 4
stal 4
spiderman 4
olo@@ 4
phin 4
liber@@ 4
affe@@ 4
pant 4
fati@@ 4
far@@ 4
force 4
tickets 4
wait@@ 4
washington 4
nes@@ 4
moti@@ 4
sniff@@ 4
cause 4
participants 4
ka 4
eng@@ 4
piercing 4
lear@@ 4
technique 4
bear@@ 4
solo 4
ken 4
nant 4
mickey 4
clean@@ 4
fitness 4
st. 4
em 4
seagul@@ 4
hen@@ 4
stro@@ 4
fur@@ 4
archite@@ 4
ements 4
ft 4
photograph@@ 4
grin@@ 4
sement 4
dim@@ 4
fal@@ 4
lets 4
cupcake 4
crayon 4
allow 4
ental 4
dia@@ 4
technolo@@ 4
activ@@ 4
gay 4
mom@@ 4
chic@@ 4
cho@@ 4
joe 4
mike 4
eting 4
pal@@ 4
spor@@ 4
pain@@ 4
peop@@ 4
guitari@@ 4
lama 4
long-@@ 4
erial 4
vest@@ 4
spea@@ 4
fier 4
jazz 4
ini@@ 4
south 4
kni@@ 4
kets 4
coca-cola 4
equip@@ 4
bracelet 4
oing 4
adorable 4
nor@@ 4
pati@@ 4
aqu@@ 4
nur@@ 4
dor@@ 4
once 4
za@@ 4
western 4
fan@@ 4
rin@@ 4
gage 4
oklahoma 4
ut@@ 4
lap@@ 4
repor@@ 4
kickboxing 4
itation 4
impressi@@ 4
pher@@ 4
kil@@ 4
fic 4
curr@@ 4
dan 4
odles 4
stants 4
ken@@ 4
slip 4
hy@@ 4
locomoti@@ 4
abo@@ 4
descend 4
fe 4
as@@ 4
prof@@ 4
ctors 4
latin@@ 4
windo@@ 4
cyc@@ 4
ney 4
art@@ 4
cade 4
ues 4
l-@@ 4
lation 4
blan@@ 4
dau@@ 4
ghters 4
go-@@ 4
compe@@ 4
cob@@ 4
gig@@ 4
participat@@ 4
ths 4
seniors 4
tures 4
coca 4
puzzle 4
fluore@@ 4
termin@@ 4
stair@@ 4
all@@ 4
dings 4
ine@@ 4
boul@@ 4
pirates 4
note 4
lows 4
enjo@@ 4
fel@@ 4
attraction 4
20@@ 4
som@@ 4
file 4
lo 4
backp@@ 4
ack@@ 4
union 4
bronze 4
hudd@@ 4
yamaha 4
rollerbla@@ 4
frustr@@ 4
buggy 4
ping-pong 4
caf@@ 4
eria 4
lass@@ 4
acti@@ 4
bicyc@@ 4
muzz@@ 4
vegas 4
sam@@ 4
stum@@ 4
double 4
taxis 4
scri@@ 4
mage 4
unicef 4
skinned 4
las 4
forces 4
monster 4
collection 4
electron@@ 4
prim@@ 4
artif@@ 4
dunes 4
itting 4
twi@@ 4
neck@@ 4
fit@@ 4
spen@@ 4
twister 4
ki 4
ray@@ 4
door@@ 4
vol@@ 4
om 4
sumo 4
trio 4
mo 4
baller@@ 4
hawk 4
mem@@ 4
ssing 4
intense 4
cram@@ 4
ey@@ 4
sent@@ 4
suppor@@ 4
fix@@ 4
fighter 4
jogg@@ 4
vice 4
boston 4
explo@@ 4
rer 4
gymna@@ 4
enf@@ 4
patri@@ 4
arrang@@ 4
vel@@ 4
mac 4
horse@@ 4
short-@@ 4
prepar@@ 4
stal@@ 4
sombrero 4
proxim@@ 4
tran@@ 4
starbucks 4
sant 4
califor@@ 4
nia 4
grimac@@ 4
san@@ 4
stop@@ 4
und 4
fine 4
oper 4
stom@@ 4
wns 4
balcon@@ 4
geish@@ 4
ebr@@ 4
id@@ 4
separ@@ 4
parasol 4
chinatown 4
ach@@ 4
ritu@@ 4
lev@@ 4
polit@@ 4
chem@@ 4
focu@@ 4
suspen@@ 4
incl@@ 4
drainage 4
ly@@ 4
possession 4
regar@@ 3
river@@ 3
crou@@ 3
walkie 3
enti@@ 3
flambo@@ 3
yant 3
mid@@ 3
mob@@ 3
vent 3
walk@@ 3
services 3
progra@@ 3
re 3
rectangu@@ 3
trum@@ 3
kara@@ 3
unusu@@ 3
zen 3
laces 3
12 3
tiv@@ 3
pump@@ 3
vacuum@@ 3
pharmac@@ 3
batt@@ 3
swor@@ 3
handica@@ 3
ym@@ 3
panda 3
wai@@ 3
mannequins 3
kart 3
phon@@ 3
eth@@ 3
route 3
ninj@@ 3
eless 3
chev@@ 3
techn@@ 3
shin@@ 3
stronau@@ 3
dic@@ 3
golf@@ 3
flot@@ 3
tting 3
turbans 3
tricycles 3
ohio 3
sai@@ 3
gard@@ 3
bum 3
jo 3
toyota 3
ov@@ 3
trav@@ 3
visit@@ 3
ro 3
pages 3
cycles 3
af@@ 3
dig@@ 3
shampo@@ 3
corn@@ 3
sils 3
formations 3
chor@@ 3
cano@@ 3
das 3
foo@@ 3
figur@@ 3
adul@@ 3
latex 3
oran@@ 3
wat@@ 3
sar@@ 3
aves 3
mur@@ 3
restaur@@ 3
cles 3
suite 3
parka 3
ton 3
wii 3
of@@ 3
adolescent 3
patron 3
transport 3
mes@@ 3
trol@@ 3
iff@@ 3
session 3
ggage 3
lego 3
onloo@@ 3
ange 3
attend 3
retriever 3
ctant 3
cand@@ 3
spot@@ 3
discu@@ 3
wrest@@ 3
bom@@ 3
fs 3
zed 3
cy@@ 3
ollie 3
oed 3
stuff@@ 3
ado@@ 3
pies 3
num@@ 3
impro@@ 3
vement 3
moder@@ 3
graffit@@ 3
kitty 3
inspect@@ 3
portraits 3
gout 3
piercings 3
simultan@@ 3
sketch 3
lei 3
tiss@@ 3
spectacu@@ 3
thoscope 3
prun@@ 3
mb 3
pop@@ 3
zombie 3
ness 3
are@@ 3
explosion 3
horizon@@ 3
bucks 3
effort 3
comm@@ 3
camer@@ 3
pony@@ 3
kly 3
haw@@ 3
sari 3
sig@@ 3
ands 3
mexic@@ 3
boo@@ 3
tresses 3
audi@@ 3
vide 3
timate 3
acrobat@@ 3
leot@@ 3
scream@@ 3
umin@@ 3
new@@ 3
ckets 3
fee@@ 3
whe@@ 3
: 3
menus 3
tout 3
tutus 3
quel@@ 3
sauna 3
index 3
paintball 3
inten@@ 3
iser 3
powerpoint 3
ctive 3
note@@ 3
eld 3
ora@@ 3
aver@@ 3
ion 3
ambu@@ 3
lance 3
ek 3
salu@@ 3
post-@@ 3
shoul@@ 3
mas 3
appla@@ 3
don 3
ponchos 3
condu@@ 3
rose 3
ament 3
vin@@ 3
stand@@ 3
du 3
bit@@ 3
sque 3
ino 3
gages 3
bm@@ 3
aga@@ 3
shaw@@ 3
sof@@ 3
colum@@ 3
ron@@ 3
poker 3
poncho 3
spider@@ 3
gras@@ 3
mets 3
fortune 3
flow@@ 3
stant 3
scienti@@ 3
ach 3
long@@ 3
kne@@ 3
ounds 3
sum@@ 3
patrio@@ 3
tum@@ 3
trouble 3
brown@@ 3
avi@@ 3
dor 3
former 3
ch-@@ 3
vietnam@@ 3
oxford 3
pel@@ 3
bean@@ 3
sy@@ 3
oti@@ 3
lad@@ 3
nintendo 3
gi 3
rap@@ 3
my@@ 3
doo 3
melons 3
pause 3
val@@ 3
rela@@ 3
tt 3
cades 3
mock 3
potat@@ 3
mariachi 3
arring 3
mot@@ 3
porter 3
tuba 3
kic@@ 3
50 3
bout 3
bie 3
gie 3
matador 3
beauti@@ 3
well-@@ 3
pier@@ 3
titude 3
ddy 3
sexy 3
cross@@ 3
ouse 3
hollister 3
ari@@ 3
page 3
ots 3
relax@@ 3
manipu@@ 3
care@@ 3
joh@@ 3
cycle 3
scope 3
lakers 3
diver@@ 3
mag@@ 3
zombies 3
enthusi@@ 3
mart 3
tee-shirt 3
quar@@ 3
blonds 3
bran@@ 3
vation 3
zz@@ 3
track@@ 3
zo@@ 3
ees 3
amar@@ 3
tho@@ 3
gar 2
just@@ 2
approa@@ 2
iers 2
camera@@ 2
dent 2
plan 2
ners 2
vari@@ 2
align@@ 2
dem@@ 2
oli@@ 2
neigh@@ 2
vin 2
orig@@ 2
particu@@ 2
st-@@ 2
patter@@ 2
video@@ 2
bonnet 2
ances 2
aff@@ 2
diffic@@ 2
class@@ 2
situation 2
bes 2
fris@@ 2
ry-@@ 2
lent 2
possi@@ 2
mer 2
stem 2
attenti@@ 2
dev@@ 2
quat@@ 2
tre 2
dame 2
occasion 2
pel 2
sti@@ 2
incen@@ 2
caress@@ 2
percussion 2
gall@@ 2
pig@@ 2
ux 2
ston 2
erie 2
conditi@@ 2
ack 2
wash@@ 2
traverse 2
ques 2
obsc@@ 2
pret@@ 2
cture 2
jama 2
igh@@ 2
harve@@ 2
ption 2
con 2
jam@@ 2
cray@@ 2
bou@@ 2
cot@@ 2
gon@@ 2
ga 2
illy 2
cho 2
capit@@ 2
teet@@ 2
secon@@ 2
chet 2
carav@@ 2
mountain@@ 2
aut@@ 2
lars 2
suc@@ 2
met 2
mal 2
ret 2
mati@@ 2
vous 2
joy@@ 2
uti@@ 2
pris 2
bes@@ 2
pane 2
bridesm@@ 2
ou 2
gos 2
i-@@ 2
syn@@ 2
diti@@ 2
portant 2
rav@@ 2
nam@@ 2
cil 2
sales 2
ath@@ 2
xing 2
bott@@ 2
ette 2
ington 2
entra@@ 2
tro 2
ave@@ 2
scaffol@@ 2
circu@@ 2
faux 2
sely 2
que 2
ton@@ 2
ha 2
inform@@ 2
instructions 2
pour 2
cour@@ 2
cle 2
rib@@ 2
distri@@ 2
esa@@ 2
cartons 2
wine@@ 2
pays 2
parti@@ 2
agricul@@ 2
jets 2
agit@@ 2
tabl@@ 2
whi@@ 2
ot@@ 2
journal 2
scu@@ 2
sweat 2
close@@ 2
,@@ 2
exerc@@ 2
mill 2
nati@@ 2
internet 2
rine 2
gir@@ 2
participant 2
jou@@ 2
une 2
shor@@ 2
spa 2
respe@@ 2
challen@@ 2
men@@ 2
tech@@ 2
repair@@ 2
ried 2
bone 2
color@@ 2
paper@@ 2
ire 2
roof@@ 2
buff@@ 2
scho@@ 2
blea@@ 2
fare 2
sph@@ 2
ere 2
inged 2
gul@@ 2
slal@@ 2
mel@@ 2
labrador 2
news@@ 2
vise 2
identi@@ 2
cers 2
nel 2
veral 2
ron 2
even@@ 2
born 2
projection 2
ull 2
tin 2
port@@ 2
gon 2
iment 2
barb@@ 2
trou@@ 2
pti@@ 2
triangle 2
ena 2
oce@@ 2
vention 2
iss@@ 2
invol@@ 2
classi@@ 2
age@@ 2
labra@@ 2
documents 2
comb@@ 2
ph 2
ensemble 2
jet@@ 2
blond-@@ 2
illumin@@ 2
isc@@ 2
riers 2
velo@@ 2
impre@@ 2
ong@@ 2
lons 2
nin@@ 2
pac@@ 2
ite@@ 2
sten@@ 2
auto 2
-skinned 2
ur 2
shift 2
stern 2
od@@ 2
mani@@ 2
laborat@@ 2
mau@@ 2
mine 2
chur@@ 2
jum@@ 2
ann@@ 2
fau@@ 2
dread@@ 2
cock@@ 2
aling 2
bli@@ 2
entre@@ 2
ench 2
furi@@ 2
envelo@@ 2
ore 2
% 2
citiz@@ 2
hard@@ 2
violet 2
respecti@@ 2
brow@@ 2
table@@ 2
xy@@ 2
gen 2
neu@@ 2
han@@ 2
admire 2
cellu@@ 2
entran@@ 2
shou@@ 2
-po@@ 2
broch@@ 2
custom@@ 2
ell@@ 2
dy@@ 2
di 2
puzz@@ 2
ordin@@ 2
boutique 2
ful@@ 2
locks 2
ai 2
acro@@ 2
nat@@ 2
ta 2
offici@@ 2
slim 2
plaque 2
lace 2
cad@@ 2
lac 2
ei@@ 2
gel 2
civ@@ 2
magi@@ 2
access@@ 2
te-@@ 2
brun@@ 2
kimon@@ 2
photo@@ 2
bandan@@ 2
oh 2
religi@@ 2
ouvre 2
cas@@ 2
cue 2
partment 2
olympi@@ 2
passer 2
plom@@ 2
ang 2
ctures 2
escal@@ 2
den 2
bystand@@ 2
gant 2
stun@@ 2
fini@@ 2
boar@@ 2
textile 2
wheelbar@@ 2
aud@@ 2
ale 2
enter@@ 2
ences 2
vie 2
oles 2
ota 2
ign 2
dribble 2
par 2
los 2
plume 2
spra@@ 2
maje@@ 2
yer 2
uniform@@ 1
sup@@ 1
spec@@ 1
tree-@@ 1
lage 1
appr@@ 1
courts 1
rying 1
dinosau@@ 1
combin@@ 1
sul@@ 1
lins 1
ising 1
guitar@@ 1
footed 1
caban@@ 1
unes 1
isi@@ 1
mains 1
infir@@ 1
naval 1
demand@@ 1
tis 1
sous-@@ 1
fig@@ 1
rol@@ 1
wheel@@ 1
fabri@@ 1
x-@@ 1
sil 1
clou@@ 1
rect@@ 1
ket 1
inc@@ 1
shooter 1
ening 1
gies 1
wel 1
casserole 1
chall@@ 1
bas 1
etting 1
lux@@ 1
stoo@@ 1
scriptions 1
teen@@ 1
contra@@ 1
polos 1
spectat@@ 1
ond@@ 1
adolesc@@ 1
hawai@@ 1
ghter 1
immense 1
touri@@ 1
hula@@ 1
yar@@ 1
ille 1
venir 1
euro@@ 1
alie 1
hors 1
&apos;@@ 1
oeu@@ 1
vres 1
motif 1
ben@@ 1
attle 1
grave@@ 1
tomb@@ 1
g-@@ 1
trib@@ 1
suring 1
rette 1
chal@@ 1
helmet@@ 1
nation@@ 1
attemp@@ 1
soon@@ 1
footbal@@ 1
sible 1
mol@@ 1
distribu@@ 1
bies 1
che 1
countr@@ 1
aspir@@ 1
get@@ 1
tooth@@ 1
inspec@@ 1
anne 1
pizzeria 1
silhouettes 1
inst@@ 1
cup@@ 1
bonnets 1
bal 1
au 1
bon 1
urer 1
sine 1
alle@@ 1
quo@@ 1
label@@ 1
accordi@@ 1
peu@@ 1
dow 1
una 1
gue 1
bbing 1
public@@ 1
bermu@@ 1
stes 1
spr@@ 1
mal@@ 1
urs 1
toboggan 1
aids 1
sa 1
brand@@ 1
mans 1
indu@@ 1
power@@ 1
cket 1
bikin@@ 1
sombrer@@ 1
ima@@ 1
spla@@ 1
bik@@ 1
res 1
flor@@ 1
sax@@ 1
zzy 1
sous 1
univer@@ 1
pizz@@ 1
panoram@@ 1
aband@@ 1
butter@@ 1
laugh@@ 1
thum@@ 1
mit@@ 1
monit@@ 1
tritus 1
flan@@ 1
busin@@ 1
ane 1
social@@ 1
shir@@ 1
ggy 1
mousta@@ 1
musc@@ 1
raf@@ 1
uri@@ 1
deo 1
ffe@@ 1
yh@@ 1
rayed 1
sav@@ 1
sang 1
client 1
casque 1
oire 1
ader 1
ballons 1
outf@@ 1
nu 1
heav@@ 1
sson 1
squee@@ 1
twe@@ 1
iler 1
ree 1
swee@@ 1
rent 1
itude 1
perform@@ 1
practi@@ 1
grimaces 1
mic@@ 1
pist@@ 1
colo@@ 1
esp@@ 1
volley 1
bed@@ 1
red@@ 1
gars 1
lared 1
vette 1
attractions 1
snea@@ 1
cated 1
perple@@ 1
bass@@ 1
lau@@ 1
again@@ 1
fighters 1
ours 1
pian@@ 1
crav@@ 1
passage 1
carton 1
eg@@ 1
ferm@@ 1
tens 1
dwalk 1
drome 1
outi@@ 1
sque@@ 1
kaki 1
ffe 1
py@@ 1
xylo@@ 1
skate@@ 1
tux@@ 1
centre 1
ever@@ 1
automob@@ 1
iles 1
bers 1
vir@@ 1
ffect@@ 1
ope 1
mach@@ 1
chu 1
flops 1
loy@@ 1
toa@@ 1
mout@@ 1
pho@@ 1
ix 1
ices 1
bask@@ 1
chine 1
allu@@ 1
cart@@ 1
ith 1
q@@ 1
situ@@ 1
numer@@ 1
oking 1
tele@@ 1
eur 1
jump@@ 1
milit@@ 1
rand@@ 1
idi@@ 1
hosp@@ 1
chute 1
shop@@ 1
sham@@ 1
dying 1
eurs 1
demo@@ 1
tread@@ 1
nie 1
shirt@@ 1
performan@@ 1
shepher@@ 1
borne 1
dump@@ 1
comp@@ 1
pelo@@ 1
si 1
roll@@ 1
visi@@ 1
pav@@ 1
ban 1
ades 1
ole 1
mignon 1
grav@@ 1
enou@@ 1
coff@@ 1
sket@@ 1
ez 1
enta@@ 1
tam@@ 1
nage 1
parall@@ 1
chemise 1
papa 1
bene@@ 1
gray@@ 1
ricksha@@ 1
fai@@ 1
after@@ 1
ac 1
produ@@ 1
masculine 1
tai@@ 1
resque 1
coupe 1
adverti@@ 1
adju@@ 1
pital 1
squat@@ 1
autom@@ 1
7@@ 1
gent@@ 1
dure 1
unicyc@@ 1
ide 1
invisible 1
anniver@@ 1
ain@@ 1
supporters 1
tom@@ 1
bracel@@ 1
les@@ 1
clar@@ 1
bub@@ 1
concre@@ 1
$ 1
tale 1
bras 1
spee@@ 1
traver@@ 1
vert 1
kar@@ 1
dio 1
enth@@ 1
aven@@ 1
entr@@ 1
yway 1
bronz@@ 1
ee 1
caucasi@@ 1
bas-@@ 1
reli@@ 1
dit 1
restau@@ 1
orient 1
ir 1
pay@@ 1
tory 1
articles 1
oph@@ 1
asi@@ 1
with@@ 1
accom@@ 1
mod@@ 1
paci@@ 1
gun@@ 1
serv@@ 1
ory 1
marine 1
iting 1
desser@@ 1
by@@ 1
lif@@ 1
nis 1
dale 1
esc@@ 1
volle@@ 1
sole@@ 1
ength 1
charge 1
inent 1
loin 1
gile 1
fou@@ 1
jer@@ 1
maine 1
mc@@ 1
esse 1
establi@@ 1
peloton 1
mering 1
musi@@ 1
pos 1
shment 1
bols 1
chalk@@ 1
shing@@ 1
filets 1
mp@@ 1
trace 1
ait 1
exer@@ 1
fon@@ 1
din 1
smil@@ 1
protection 1
hispan@@ 1
cow@@ 1
fume 1
plying 1
gency 1
stil@@ 1
document 1
synchron@@ 1
sac 1
harmon@@ 1
cass@@ 1
onne 1
binocu@@ 1
gne 1
urg@@ 1
fum@@ 1
quarter@@ 1
rollers 1
grat@@ 1
journal@@ 1
za 1
ssive 1
ry@@ 1
acked 1
liqui@@ 1
donal@@ 1
illo@@ 1
tte 1
ish@@ 1
arro@@ 1
yc@@ 1
chin@@ 1
vel 1
adolescents 1
quette 1
verse 1
chap@@ 1
shoot@@ 1
sch@@ 1
differ@@ 1
coin 1
rece@@ 1
tram@@ 1
gratu@@ 1
midd@@ 1
mono@@ 1
bulldo@@ 1
transpor@@ 1
asse 1
inju@@ 1
obstacles 1
cuit 1
box@@ 1
seu@@ 1
brit@@ 1
athle@@ 1
cation 1
argent@@ 1
del@@ 1
concer@@ 1
may@@ 1
pics 1
auto@@ 1
conc@@ 1
vit@@ 1
tron@@ 1
leur 1
cham@@ 1
plumes 1
xe 1
cuisine 1
= 1
tos 1
de-@@ 1
sembl@@ 1
pe-@@ 1
sni@@ 1
hus@@ 1
bout@@ 1
onn@@ 1
-haired 1
bre 1
clients 1
surve@@ 1
expose 1
docum@@ 1
entary 1
chain@@ 1
skateboar@@ 1
cobble@@ 1
cet 1
memori@@ 1
sma@@ 1
poni@@ 1
sent 1
