#version: 0.2
a n
i n
u n</w>
u n
e s</w>
a r
in g</w>
o u
e n
un e</w>
p o
l e</w>
i n</w>
t h
o m
d e</w>
o n
i t
a n</w>
e n</w>
e r
c h
o n</w>
po s
i s</w>
r e
& a
&a pos
&apos ;</w>
e r</w>
m e</w>
an t</w>
s t
a l
r o
e t</w>
d e
l a
i l
th e</w>
u r</w>
o r
i r
a t
q u
a v
h om
e m
an d</w>
s s
d an
en t</w>
b l
r a
d &apos;</w>
r i
dan s</w>
m an</w>
s ur</w>
hom me</w>
d es</w>
p e
r e</w>
s h
av e
s e</w>
ave c</w>
o f</w>
r ou
g e</w>
a u
it h</w>
w ith</w>
t i
b o
l a</w>
f em
l o
e a
d o
s i
t e</w>
u e</w>
u x</w>
e l
o l
t s</w>
a i
an d
g ar
a t</w>
t o</w>
w om
w h
s on
p la
u r
e s
fem me</w>
p er
ar e</w>
k ing</w>
t a
l &apos;</w>
sh ir
o p
a c
de ux</w>
t w
b al
wom an</w>
c ou
j e
tw o</w>
l i
c a
shir t</w>
l e
a ss
p ar
o un
es t</w>
ou t</w>
v er
j ou
c k</w>
t o
e d</w>
n o
m es</w>
g rou
d ing</w>
w e
m ar
w al
l es</w>
it e</w>
i r</w>
t r
pe op
peop le</w>
qu e</w>
i c
m a
t ing</w>
p e</w>
e t
il le</w>
son n
t en
per sonn
po r
ar ing</w>
pla y
p r
er s</w>
b a
we aring</w>
s on</w>
c o
i s
f o
t ra
w n</w>
p a
on e</w>
p h
é e</w>
n e
y oun
u m
a u</w>
bl an
s it
youn g</w>
b le</w>
i le</w>
bal l</w>
g ir
c h</w>
ch e</w>
wh ite</w>
t ant</w>
b out</w>
ea u</w>
ou r</w>
c e</w>
ch i
p l
b u
re d</w>
re gar
b e
st and
b la
s k
gar ç
en f
bla ck</w>
de bout</w>
ê t
v ant</w>
o t
h is</w>
personn es</w>
son t</w>
wh ile</w>
ai r</w>
g u
w at
ou t
s e
t ro
on t</w>
bl ue</w>
bo y</w>
th er</w>
ur s</w>
d i
lo o
bl e
v i
a m
je une</w>
p i
in e</w>
m en</w>
t and
tand is</w>
f r
de vant</w>
hom mes</w>
f i
ir e</w>
d u</w>
f ille</w>
c on
gir l</w>
sit ting</w>
en s</w>
u re</w>
i l</w>
d s</w>
k s</w>
do g</w>
or s</w>
grou pe</w>
au t
cou r
ch il
garç on</w>
v e
ass is</w>
t -
h ol
chi en</w>
st re
stand ing</w>
f ai
f or
ch e
play ing</w>
an ts</w>
v êt
qu &apos;</w>
s s</w>
i t</w>
grou p</w>
g ra
c u
b y</w>
t es</w>
si de</w>
e ur</w>
at i
r ue</w>
stre et</w>
b r
i se</w>
p u
c ar
t- shirt</w>
g r
rou ge</w>
n e</w>
a l</w>
do wn</w>
g a
s m
è re</w>
ar d</w>
wal king</w>
ac k
no ir</w>
mar ch
por tant</w>
re e</w>
s om
d r
fr ont</w>
il l
blan c</w>
a s</w>
st e</w>
o ther</w>
p our</w>
g ro
regar d
tra in</w>
th e
s es</w>
h er</w>
b e</w>
è s</w>
o c
g h
t er
au x</w>
hol ding</w>
a ge</w>
b i
u s</w>
d re
ta ble</w>
d é
c om
m an
g s</w>
c ro
ph o
d er</w>
é l
l on
s ou
c i
t é</w>
s a
g ens</w>
f f
p ro
t al
tro is</w>
wat er</w>
tr av
rou g
a p
w or
k e</w>
on s</w>
v e</w>
or an
ble u</w>
y ing</w>
th ree</w>
c ô
fai t</w>
fem mes</w>
g re
v er</w>
m ent</w>
s u
p ing</w>
u p</w>
y c
s t</w>
m on
s c
t le</w>
m u
c ol
st r
w a
enf ant</w>
e urs</w>
a d
wom en</w>
s au
m o
enf ants</w>
pe t
j um
b ro
al l</w>
é s</w>
s a</w>
pr ès</w>
g e
en ts</w>
qu i</w>
l it
m i
et te</w>
loo king</w>
ch em
l ar
lo w</w>
oran ge</w>
gre en</w>
e x
cô té</w>
s no
lit tle</w>
ti ent</w>
a si
fo r</w>
d er
ti t</w>
chil d</w>
pe tit</w>
r un
wal k</w>
ch a
t ure</w>
p le</w>
aut re</w>
j a
c ti
un d</w>
regar de</w>
en t
out side</w>
f ro
lar ge</w>
h i
s ant</w>
é ri
gro und</w>
roug h</w>
e u
f il
sk at
g la
ea r</w>
o o
b ar
gu it
b â
ea ch</w>
th rough</w>
jou e</w>
s ur
ss e</w>
ou r
y el
pho to</w>
s &apos;</w>
i m
sh or
it s</w>
un es</w>
y s</w>
p s</w>
i e</w>
yel low</w>
l s</w>
dr en</w>
chil dren</w>
st u
bro wn</w>
ten ant</w>
el le</w>
v o
ph one</w>
personn e</w>
et tes</w>
en d
bl on
em ent</w>
ca s
per son</w>
p an
qu el
b ri
jou ant</w>
e il</w>
vêt u</w>
dre ss
s w
the ir</w>
fro m</w>
pa r</w>
h at</w>
ca m
ch es</w>
f ac
l y</w>
in to</w>
gh t</w>
p ass
a g
u l
bo ard</w>
ri ère</w>
n ing</w>
qu ot
quot ;</w>
& quot;</w>
fo ot
pl u
o b
b ack
l u
bu il
s ol
sh o
sm all</w>
le urs</w>
c or
ja une</w>
de ss
t er</w>
p in
c lo
i g
th ing</w>
ne x
nex t</w>
cro w
chem ise</w>
ss es</w>
bâ ti
t e
je unes</w>
qu es</w>
b at
v él
vél o</w>
h ors</w>
dress ed</w>
j ack
ver t</w>
i ge</w>
som e</w>
o r</w>
foot ball</w>
an s</w>
l un
l ing</w>
jou ent</w>
un i
l ors</w>
pet ite</w>
o l</w>
oun d</w>
regard ant</w>
c t
ati on</w>
d y</w>
o ver</w>
re a
f ou
b an
to ir</w>
de hors</w>
buil ding</w>
tro t
bâti ment</w>
for m
pl an</w>
st and</w>
re st
s pe
run ning</w>
in s</w>
p ic
lun ettes</w>
ri ding</w>
mar che</w>
el d</w>
n ear</w>
blan che</w>
es c
co stu
s em
ar ound</w>
jack et</w>
c la
cou ple</w>
si de
ve ste</w>
an other</w>
m ic
fai sant</w>
t out</w>
in d</w>
fo o
p er</w>
g ing</w>
f ri
b re</w>
it ure</w>
ir s</w>
fac e</w>
c it
trot toir</w>
s er
ass ise</w>
d d
ch o
r é
c yc
c er</w>
sau te</w>
h a
dess us</w>
t ent</w>
som e
skat e
regard ent</w>
ve ux</w>
b each</w>
f e
che veux</w>
b ou
b or
m at
cour t</w>
h er
ê te</w>
fi eld</w>
bal l
side walk</w>
lon g</w>
f a
fou le</w>
trav a
gla sses</w>
str u
h ea
crow d</w>
sou ri
pe au</w>
é qu
march ant</w>
st i
on n
wa y</w>
k i
ar ri
pla ge</w>
ch ing</w>
é es</w>
k e
por te</w>
der rière</w>
en d</w>
stand s</w>
de d</w>
d u
ble ue</w>
o f
jum ping</w>
re -
pin k</w>
é t
h ind</w>
ur es</w>
i er</w>
ver s</w>
p re
â g
sit s</w>
n i
ac k</w>
gir ls</w>
be hind</w>
mu si
c an
cti on</w>
to p</w>
sm il
tr es</w>
sem ble</w>
c li
h air</w>
ne ige</w>
&apos ;
è ne</w>
bi ke</w>
ba sk
ma in</w>
gra ss</w>
sno w</w>
col or
d a
ba se
ball on</w>
j u
back ground</w>
qu at
si eurs</w>
ro se</w>
plu sieurs</w>
arri è
c k
&apos; s</w>
quel que</w>
ic yc
th er
sno w
c ing</w>
is es</w>
e ux</w>
cit y</w>
arriè re-
ad ul
t re</w>
r ant</w>
l er</w>
fil les</w>
d is
cho se</w>
lo t</w>
gr and</w>
e ts</w>
arrière- plan</w>
a d</w>
b icyc
a r</w>
j o
s oc
f on
br un</w>
au tres</w>
asi ati
t eau</w>
cam er
par k</w>
p ou
b ra
play er</w>
g o
asi an</w>
wal l</w>
t ri
ten ue</w>
pla y</w>
p at
it i
t éri
pr é
on g</w>
loo ks</w>
b re
do gs</w>
f our</w>
s un
ch an
le ur</w>
her be</w>
a de</w>
r u
march ent</w>
quat re</w>
chi ens</w>
w oo
ver al</w>
n is</w>
che v
se veral</w>
ver te</w>
cha peau</w>
base ball</w>
s ing</w>
pe d</w>
l an
f u
ro be</w>
ol der</w>
no ire</w>
dre ss</w>
- dessus</w>
b en
oun ta
bo ar
th at</w>
ten nis</w>
g er</w>
v ille</w>
rest au
camer a</w>
cour se</w>
of f</w>
ma il
m é
w ing</w>
ra in</w>
costu me</w>
téri eur</w>
o m</w>
tal king</w>
f en
s we
m ur</w>
h or
bo ys</w>
l ine</w>
m il
restau rant</w>
si g
aut our</w>
él é
s al
c er
some thing</w>
sol eil</w>
n ent</w>
st ri
la dy</w>
f la
soc cer</w>
ou v
h and
ch er</w>
ol d</w>
sou s</w>
s in
at ten
skate board</w>
r on</w>
u es</w>
p le
foo d</w>
al ong</w>
wor king</w>
wal ks</w>
guit ar</w>
b ill
h el
h au
at ing</w>
m et</w>
e l</w>
wor k
f lo
shor t</w>
f ont</w>
end ant</w>
bal le</w>
to ge
toge ther</w>
per form
guit are</w>
esc al
uni for
su it</w>
smil ing</w>
d ir
in t</w>
ra m
pl an
pho to
p en
garç ons</w>
w in
vi ol
t ou
par c</w>
blon d</w>
mic ro
ro ad</w>
sa c</w>
l ant</w>
ass ises</w>
l ea
i ss
ga me</w>
play s</w>
bo is</w>
ca r</w>
pic ture</w>
gra y</w>
shor ts</w>
lon g
at s</w>
v es</w>
mar ron</w>
k es</w>
h as</w>
sur f
r ying</w>
ter re</w>
sc ène</w>
con stru
m ot
m b
g ne</w>
en semble</w>
ro om</w>
qu ette</w>
v ol
h and</w>
d in
ic e</w>
é r
v ing</w>
ou se</w>
jou r
trava ill
ter rain</w>
si t</w>
ro l
pos e</w>
g i
em ents</w>
ma ga
hol ds</w>
str um
ra y
ha bill
équ i
pan tal
sh ing</w>
s le
p ants</w>
m e
je an</w>
ch am
u t
swe at
cyc li
jour n
in strum
hea d</w>
g es</w>
ben ch</w>
b é
ta bl
t élé
mat ch</w>
t ea
ban c</w>
n a
jou eur</w>
d ra
r es</w>
vêt ue</w>
mail lot</w>
gar s</w>
t re
pu l
asiati que</w>
hi m</w>
ac ro
st age</w>
a y
u se</w>
pu bl
p ur
ounta in</w>
il s</w>
ss i
car rying</w>
c l
êt re</w>
ba by</w>
e u</w>
c ks</w>
s or
il l</w>
bo o
v is
shir ts</w>
po n
fu l</w>
ch ar
bor d</w>
po li
bu s</w>
st or
im m
b é</w>
a le</w>
v en
st a
ro ck</w>
out do
t ête</w>
ob je
hau t</w>
bask et
b ack</w>
an de</w>
do s</w>
vo iture</w>
ar ti
the m</w>
pantal on</w>
av ing</w>
lu i</w>
c s</w>
tr ès</w>
s el
d ar
ch au
bicyc le</w>
je ans</w>
ra ce</w>
cas que</w>
gr is</w>
ut il
ta king</w>
t ree</w>
f ra
n er</w>
ma le</w>
i c</w>
c es</w>
po ol</w>
é c
h u
da y</w>
rou te</w>
ke y</w>
es s</w>
s ol</w>
do ing</w>
de ur</w>
bo t
vêt ements</w>
mi dd
cli mb
bo at</w>
constru ction</w>
ar e
n our
li t</w>
cas quette</w>
mon ta
c el
n om
gro s</w>
at tra
em p
bé bé</w>
be au
ther e</w>
d en</w>
g g
et ting</w>
wat ching</w>
v ent</w>
dir t</w>
acro ss</w>
in di
pi e
ea t</w>
ma ch
chev al</w>
bat eau</w>
sle e
trav er
dr in
gu y</w>
are a</w>
s por
maga s
h o
m out
b and</w>
p endant</w>
cu is
s p
it ing</w>
ent re</w>
v é
st es</w>
pr end</w>
co at</w>
t u
par a
hand s</w>
br es</w>
jum ps</w>
e ss
bal an
t or
is c
ex térieur</w>
roug es</w>
ir es</w>
gr ande</w>
télé phone</w>
ss em
to w
sau tant</w>
ouv ri
magas in</w>
at e</w>
ta l</w>
par ti
pa in
p isc
pisc ine</w>
ar ds</w>
s ent</w>
perform ing</w>
fem ale</w>
mot or
am éri
sa ble</w>
re m
it é</w>
cour ant</w>
be ing</w>
al l
wh o</w>
r iture</w>
d ge</w>
nour riture</w>
f l
c at
a th
en nent</w>
t y</w>
photo gra
g ri
e ating</w>
co ver
cham p</w>
ai son</w>
w s</w>
mil i
mili eu</w>
de sc
av e</w>
pe l
a f
oc key</w>
d -
u sing</w>
stri ped</w>
c re
améri ca
h ai
t ed</w>
sig n</w>
cou p</w>
u m</w>
spe ct
man y</w>
ki ds</w>
u it</w>
stor e</w>
bo w
micro phone</w>
k et</w>
in es</w>
f am
au -dessus</w>
wat ch</w>
p es</w>
ar bre</w>
vi e
ur ing</w>
pur ple</w>
mout h</w>
ai se</w>
hor se</w>
t on</w>
g y
un der</w>
s h</w>
pr om
par le</w>
fa ire</w>
st s</w>
s li
man teau</w>
bi k
th is</w>
iti on</w>
s o
publ ic</w>
no irs</w>
loo k</w>
hai red</w>
fri s
ch air</w>
v re</w>
pass e</w>
h e</w>
st e
run s</w>
basket ball</w>
sun glasses</w>
pos ing</w>
le d</w>
con tre</w>
win do
ssem bl
s and</w>
en jo
vis age</w>
vi eil</w>
journ ée</w>
ge ant</w>
g il
bra s</w>
ar m
ou s</w>
gra ff
ap par
ss ant</w>
o ff
blan cs</w>
al long
tr an
th ro
sw imm
mach ine</w>
rea ding</w>
play ers</w>
cour ent</w>
clo thing</w>
n um
co w
tr u
spect at
r o</w>
co lo
ca l</w>
bre l
t ire</w>
h ockey</w>
c e
graff it
d ri
s cu
li ght</w>
g h</w>
photogra ph
oc e
dar k</w>
work ers</w>
wor k</w>
mic ro</w>
m ountain</w>
flo w
cover ed</w>
âg é</w>
ti on</w>
march é</w>
d uring</w>
blon de</w>
to y</w>
t ur
oce an</w>
fra p
ar s</w>
souri ant</w>
dis cu
midd le</w>
en ce</w>
pa per</w>
n es</w>
atten d
pi er
unifor m</w>
souri t</w>
pro du
o u</w>
o ire</w>
el der
elder ly</w>
dan cing</w>
c in
a fri
équi pe</w>
por table</w>
pa st</w>
d or
climb ing</w>
be e</w>
a ga
wat ches</w>
il les</w>
sal le</w>
j et</w>
hel met</w>
ba in</w>
aga in
st at
p il
ma ins</w>
fo re
ca mi
again st</w>
l è
a do
fris bee</w>
f ul
u ses</w>
tea m</w>
oc é
ri des</w>
océ an</w>
g li
the y</w>
t rou
ra ssembl
k it
costu mes</w>
con ver
c t</w>
windo w</w>
vol le
um brel
f loo
en ant</w>
c an</w>
ba r</w>
nom bre
le an
l ent</w>
a bout</w>
en ti
s et</w>
pi ste</w>
monta gne</w>
i ma
f t</w>
chem in</w>
ar bres</w>
pre par
par -dessus</w>
i d</w>
h an
ba g</w>
tre es</w>
snow boar
s aut
s and
o t</w>
m or
m in
chau ss
po l
colo red</w>
cin q</w>
woo den</w>
wa iting</w>
t at
pla sti
pi er</w>
h aving</w>
el s</w>
c r
b on
tru ck</w>
th ers</w>
s y</w>
outdo or</w>
f leurs</w>
el les</w>
ai l</w>
ver y</w>
swimm ing</w>
p li
mo to</w>
floo r</w>
bl o
pla ce</w>
je u</w>
h ic
g etting</w>
c le</w>
américa in</w>
ten te</w>
fi ve</w>
cuis ine</w>
c ir
b es</w>
po m
ple in</w>
âg ée</w>
t ting</w>
p ant</w>
instrum ents</w>
end re</w>
trava ille</w>
t an
sk i
op e</w>
fon c
stat ue</w>
h oo
ff e
cyc le</w>
color ful</w>
bu l
tr ying</w>
tabl es</w>
ss ing</w>
al es</w>
ê t</w>
musi ci
ga ther
cel l
bu sy</w>
boo k</w>
par lant</w>
mu l
g ging</w>
car t</w>
at ed</w>
ar t</w>
trav ers</w>
t our
ss y</w>
skate boar
sin ging</w>
lean ing</w>
g ol
com b
beau coup</w>
s co
plu ie</w>
p ra
h ill</w>
foo t</w>
dé bar
c ture</w>
b er</w>
ten ues</w>
o ù</w>
mar ket</w>
is h</w>
g ent</w>
fen ce</w>
eu se</w>
clo th
l é
l in
p are</w>
jum p</w>
cro ss</w>
a près</w>
in ter
vêt us</w>
pi è
g en
ar rière</w>
an te</w>
quel qu&apos;</w>
po in
is ant</w>
e -
an ce</w>
a ire</w>
v it
travaill ant</w>
si x</w>
in side</w>
di ff
ci gar
at eur</w>
t te</w>
ri de</w>
o ver
jou er</w>
in gs</w>
ca f
attra per</w>
t an</w>
o king</w>
la ying</w>
kit ch
ay ant</w>
ro un
cl ô
appar eil</w>
st ation</w>
sh op
pré par
n uit</w>
n u</w>
h ats</w>
gu eu
con cer
bri ght</w>
ar i
ti ennent</w>
ray é</w>
parti ci
k ed</w>
jou eurs</w>
instrum ent</w>
hi gh</w>
gy m
ck et</w>
ca p</w>
c oun
ouvri ers</w>
ne ig
ig n
fi t</w>
bo dy</w>
wh e
s k</w>
p au
jou et</w>
br un
v a
mul ti
concer t</w>
cami on</w>
bi g</w>
su b
spe c
plan che</w>
p ê
ma king</w>
gueu le</w>
gra ssy</w>
débar deur</w>
ba s</w>
ram pe</w>
pe aux</w>
li vre</w>
kitch en</w>
f er
cloth es</w>
am er
poli ce</w>
pat h</w>
p ri
o thers</w>
mar i
habill é</w>
cell phone</w>
back p
stru cture</w>
some one</w>
re ad
or din
n y</w>
c ra
bl es</w>
amer ic
ta kes</w>
sho p</w>
pol o</w>
piè ce</w>
ni ght</w>
musi que</w>
f li
en neig
bri ck</w>
blan ches</w>
bask et</w>
a bo
t om
sur roun
re au</w>
out fit</w>
on g
n s</w>
m er</w>
la u
in térieur</w>
ent our
ch é</w>
be ige</w>
viol et</w>
vi ère</w>
umbrel la</w>
ri vière</w>
motor cycle</w>
h e
ful l</w>
d re</w>
ble us</w>
adul tes</w>
é cou
uni form
tra ck</w>
tow ards</w>
el e
cycli ste</w>
a i</w>
travaill ent</w>
sw eat</w>
read y</w>
m ou
enjo ying</w>
com p
c rou
ar ts</w>
al s</w>
st one</w>
sh e</w>
pos ent</w>
pet its</w>
la c</w>
il y</w>
gu re</w>
fi gure</w>
com m
volle y
m aison</w>
av es</w>
tra î
t y
ro cher</w>
ri ver</w>
pa s</w>
me tal</w>
for m</w>
dan ce</w>
ac e</w>
é cla
t ures</w>
t eur</w>
sw ing</w>
s que</w>
rol ler</w>
pie ce</w>
off ic
h ouse</w>
d ers</w>
ri t</w>
pos ant</w>
pier re</w>
on ne
gym na
fen être</w>
e p</w>
cigar ette</w>
ch aise</w>
bow ling</w>
tan k</w>
sh a
quel ques</w>
on es</w>
m i</w>
cour s</w>
b rea
x ing</w>
sk i</w>
sh es</w>
s er</w>
po int</w>
ob ser
mar ti
gu es</w>
bik in
m em
dan se</w>
cti f</w>
c lu
ar r
ar m</w>
volley ball</w>
tri ck</w>
tor se</w>
sweat er</w>
pr enant</w>
pon t</w>
op en</w>
la ke</w>
ill ée</w>
f in
d iti
c ur
work er</w>
obje ctif</w>
k ers</w>
è res</w>
tr o</w>
t ir
spectat eurs</w>
pl us</w>
pain ting</w>
p av
onn et</w>
mo to
chan te</w>
balan ç
util ise</w>
sti ck</w>
st ra
s ac
qu i
f al
d on
cor de</w>
clô ture</w>
ch ant</w>
b onnet</w>
an im
adul ts</w>
abo ve</w>
w i
st o
pro te
or i
mil it
f eu
cir cu
shop ping</w>
scu l
pel ouse</w>
musi c</w>
march es</w>
l esc
go ing</w>
comb in
blon d-
americ an</w>
ado lesc
pe in
f s</w>
char i
asiati ques</w>
- haired</w>
z one</w>
to dd
s car
re aux</w>
pul l</w>
gil et</w>
gh t
t- shirts</w>
ro pe</w>
par king</w>
p it
ob jet</w>
lo ts</w>
ic h</w>
ch in
v est</w>
surroun ded</w>
snow y</w>
r and
outdo ors</w>
oran ges</w>
k ne
hea d
h ar
em bra
crow ded</w>
c al
ap pr
sub way</w>
scul p
r un</w>
on to</w>
k ic
h ard</w>
f ête</w>
w ave</w>
uniform s</w>
ten d
li ke</w>
ex am
con du
ch ed</w>
at ta
v ag
ne w
mé tro</w>
gla ce</w>
fr u
f ire</w>
u di
spor t</w>
smil es</w>
po le</w>
par lent</w>
mon tre</w>
i es</w>
be side</w>
backp ack</w>
ét on</w>
photo s</w>
man ger</w>
k ay
kay a
ct ri
re r</w>
poli ci
n et
net to
d ents</w>
balanç oire</w>
allong é</w>
ad ver
vag ue</w>
s ation</w>
regard er</w>
g ear</w>
drin king</w>
cow boy</w>
chari ot</w>
wat er
tra diti
todd ler</w>
ta ine</w>
sac s</w>
pie ds</w>
lau gh
ki d</w>
i ers</w>
g ent
d ro
w el
v al</w>
spe a
n eau</w>
mar ath
l ess</w>
di re
conver sation</w>
car ri
bâ ton</w>
bikin i</w>
ap pe
trou ve</w>
ss ent</w>
re cou
n ement</w>
fru its</w>
flow ers</w>
escal ade</w>
e y
cou leur</w>
cat ch</w>
bri dge</w>
an g
afri can</w>
t emp
sc en
ordin ateur</w>
k er</w>
il ing</w>
i si
han ging</w>
fam ily</w>
e vent</w>
ag es</w>
sk ir
j am
gather ed</w>
for êt</w>
bri ques</w>
b elle</w>
a way</w>
y ard</w>
u le</w>
sho es</w>
s il
pan car
iss on</w>
fr équ
arm s</w>
ar y</w>
s -
par ade</w>
l em
i que</w>
fam ille</w>
e aux</w>
de o</w>
chauss ures</w>
b ir
ai e</w>
ver re</w>
te en
t em
st ic
pass ent</w>
gu ys</w>
gri m
graffit i</w>
fon taine</w>
f ol
en ing</w>
beau ti
b er
sor t</w>
slee ping</w>
pro fe
ja unes</w>
f ountain</w>
di um</w>
com pu
col line</w>
ch ers</w>
b an</w>
at temp
vi eux</w>
qu ai</w>
prepar ing</w>
pr endre</w>
pen te</w>
pe int</w>
obje ct</w>
mo y
escal ier</w>
can ap
marath on</w>
lon gs</w>
fi shing</w>
dé o</w>
car reaux</w>
beauti ful</w>
bal lo
woo d</w>
ste ps</w>
sco ot
p y</w>
mi d
la r</w>
di es</w>
canap é</w>
b un
af ter</w>
st ance</w>
ser t</w>
s en
s ement</w>
pla id</w>
oo l</w>
mé tal
i z
f aut
faut eu
er e</w>
cha irs</w>
tr on
st er</w>
rol l
pra cti
pi ed</w>
p al
combin aison</w>
cas ques</w>
c ette</w>
b out
av ant</w>
é le
tou s</w>
ta ke</w>
sta irs</w>
sol e
shir t
s qu
no ires</w>
ima l</w>
gla ss</w>
g o</w>
fi re
enneig ée</w>
en traî
do ig
ci el</w>
au che</w>
an imal</w>
a ch
shirt less</w>
ro cks</w>
re la
par mi</w>
métal li
j er
iss ons</w>
gen ou
f f</w>
en sole
dé fil
util isant</w>
ti me</w>
sel ling</w>
pré pare</w>
pro f
ph ones</w>
para pluie</w>
n av
h ap
g nes</w>
el ing</w>
do or</w>
brun s</w>
- ball</w>
vi si
um i
sor te</w>
p our
caf é</w>
adul t</w>
x im
u p
sun ny</w>
sh ou
s age</w>
ra cing</w>
m et
le -
indi vi
graffit is</w>
gent lem
am u
vi f</w>
s etting</w>
pro xim
pr in
jer se
ensole illée</w>
do es</w>
cou r</w>
cor ner</w>
ble ues</w>
ba se</w>
attend ant</w>
al ors</w>
thro wing</w>
tal l</w>
sau t</w>
on al</w>
fore st</w>
cou ver
cou re
c ri
ai ses</w>
y eux</w>
y ant</w>
sli de</w>
ro che
pu tting</w>
pu shing</w>
m ounta
lo in</w>
li st
dr um
d ont</w>
a pr
é ch
trav ail</w>
pa pier</w>
ouvri er</w>
op s</w>
lo s</w>
it es</w>
g et</w>
for me</w>
fla g</w>
ffe ct
er y</w>
ent ée</w>
ai t</w>
vie w</w>
tra m
tr y</w>
st ing</w>
spec ta
som met</w>
sh e
scar f</w>
ro bes</w>
qui p
pê che</w>
proxim ité</w>
p é
man i
la m
h ave</w>
gil ets</w>
genou x</w>
fe u</w>
e quip
cycli stes</w>
c eau</w>
bar be</w>
attend ent</w>
unifor me</w>
tw e
sc ope</w>
par ty</w>
p is</w>
nombre ux</w>
ne w</w>
n us</w>
li f
il i
g lo
f re
f et
e ffect
drin k</w>
desc end</w>
dan sent</w>
che f</w>
bou che</w>
bot h</w>
ét udi
è ge</w>
vêt ues</w>
sur f</w>
skat e</w>
s un</w>
pro je
pos es</w>
plasti que</w>
pass ant</w>
p ati
hi ver</w>
g ers</w>
frap per</w>
f le
compu ter</w>
bu reau</w>
b ed</w>
ag ed</w>
ér o</w>
éc r
ç ant</w>
ve hic
ur ité</w>
twe en</w>
ti er</w>
shou l
ram p</w>
pou sse</w>
ple ine</w>
pic tures</w>
par t</w>
pan neau</w>
ne l</w>
laugh ing</w>
e se</w>
cou ch</w>
can o
be tween</w>
b éton</w>
atten d</w>
ap pu
adul te</w>
ta s</w>
sweat shirt</w>
ssi on</w>
sh i
rea ds</w>
pou ss
por tent</w>
plasti c</w>
num éro</w>
la ge</w>
la dies</w>
k ar
f ish</w>
equip ment</w>
clo wn</w>
a irs</w>
a ir
vé hic
v ue</w>
to it</w>
rem pl
le y</w>
le t
feu illes</w>
diff ér
col li
c king</w>
bu t</w>
and s</w>
wh ere</w>
t un
sweat -
su its</w>
s ed</w>
profe ssi
p ère</w>
m ê
m ère</w>
li gne</w>
ju pe</w>
gol f</w>
en ne</w>
com pe
bout e
bo x
bi kes</w>
ass i
œ u
wor ks</w>
woo ds</w>
wh ich</w>
w r
specta cle</w>
scoot er</w>
play ground</w>
n ed</w>
journ al</w>
em s</w>
di stance</w>
con cre
ch er
win ter</w>
un der
tra il</w>
st y
skir t</w>
sk y</w>
pancar te</w>
pa y
o re
li sant</w>
in ing</w>
fréqu entée</w>
ess ayant</w>
dra peau</w>
dan sant</w>
cuis in
concre te</w>
at es</w>
ac cor
â ge</w>
z z
traver se</w>
tou ri
ter ie</w>
t eurs</w>
s of
ro chers</w>
r ine</w>
moy en</w>
mid air</w>
ma s</w>
m ir
lo y
gr ill</w>
en ds</w>
el y</w>
défil é</w>
d ée</w>
cla sse</w>
be ard</w>
whe el
tow ard</w>
tat ou
sweat- shirt</w>
se ated</w>
sc re
saut ent</w>
p ping</w>
nombre uses</w>
monta gnes</w>
mon te</w>
lan ce</w>
gg les</w>
en tr
do ck</w>
di e</w>
é vé
évé nement</w>
unifor mes</w>
prom ène</w>
p ile</w>
p ent</w>
mail lots</w>
li gh
ju st</w>
j ar
i m</w>
do r</w>
din gs</w>
d ent</w>
co oking</w>
ch u
ch aises</w>
at tire</w>
ac crou
wh at</w>
ti e</w>
tat to
ta pis</w>
st ac
souri ent</w>
s ch
ro w</w>
por t</w>
num ber</w>
n et</w>
métalli que</w>
moto cross</w>
midd le-
man geant</w>
m s</w>
fonc és</w>
fauteu il</w>
co in</w>
al ly</w>
éc urité</w>
ver ts</w>
v ari
t out
saut er</w>
s écurité</w>
s ca
o is
o ir</w>
ne ar
g er
fr uit</w>
ba gs</w>
é pau
v ir
to r</w>
s pen
s an
ro déo</w>
pr ennent</w>
or che
n u
micro scope</w>
m ea
lin ed</w>
lan cer</w>
k i</w>
d ding</w>
cla ir</w>
br u
be er</w>
be ar
bar b
é tant</w>
vé los</w>
tun nel</w>
sti que</w>
snowboar der</w>
sho w</w>
sch ool</w>
ri der</w>
new s
m other</w>
lè ve</w>
le ft</w>
it ures</w>
gro sse</w>
fil led</w>
dar k
cro ssing</w>
comp ét
com pet
cha peaux</w>
buil dings</w>
appe ars</w>
w rest
ve sts</w>
t h</w>
sculp ture</w>
rempl i</w>
re pas</w>
r y</w>
pul ling</w>
lé gu
f um
dor t</w>
cu tting</w>
ca de</w>
c au
blond- hair</w>
bi ère</w>
bar be
b ur
ë l</w>
équ ili
éc rit</w>
tabl ier</w>
st om
s enti
ro ck
rem pli
ra l</w>
qu et</w>
pu is</w>
nom bre</w>
middle- aged</w>
m ents</w>
je ux</w>
fri ends</w>
de puis</w>
cti ons</w>
compét ition</w>
com me</w>
che er
br an
a ires</w>
è me</w>
vo itures</w>
ve ge
v res</w>
v en</w>
ti ss
ta ge</w>
surf er</w>
su spen
su per
sm oking</w>
skateboar der</w>
shor e</w>
s ci
ri ght</w>
rea m</w>
pi ers</w>
mon tr
le aves</w>
habill ée</w>
de au</w>
c ream</w>
br une</w>
bear ded</w>
â teau</w>
y m
w n
v age</w>
tram po
trampo line</w>
to bo
tobo gg
tobogg an</w>
sho wing</w>
senti er</w>
s ans</w>
pil o
p ped</w>
no ël</w>
near by</w>
mounta ins</w>
ma ke</w>
in ging</w>
g le</w>
fe w</w>
fe sti
esc ope</w>
d o</w>
cli ff</w>
chan tant</w>
carri es</w>
car s</w>
ca ke</w>
bicyc li
bat tent</w>
apr on</w>
ac cro
équili bre</w>
vie ille</w>
v ed</w>
te aux</w>
pan ier</w>
mi er</w>
légu mes</w>
lon s</w>
jerse y</w>
i on</w>
hor ses</w>
h am
g auche</w>
en ta
e dge</w>
dan se
c tor</w>
bu b
bo x</w>
blon ds</w>
b ai
écla ir
t in
spectat ors</w>
s eau</w>
onn ée</w>
n at
mê me</w>
marti al</w>
is ent</w>
ign ant</w>
gli sse</w>
f lu
emp loy
dress es</w>
don ne</w>
cow -
barb u</w>
ai de</w>
tour n
sw im
sm ile</w>
ré par
perform s</w>
pay sage</w>
kaya k</w>
gri se</w>
fon d</w>
fa ç
entour é</w>
da me</w>
bu vant</w>
ba thing</w>
arti ste</w>
appr ête</w>
ap pro
ven dor</w>
traver sent</w>
roche use</w>
rand onne
ra il</w>
produ its</w>
per form</w>
or k</w>
op h
ob stac
n ag
mor ceau</w>
la p
hom e</w>
g ants</w>
dra peaux</w>
d in</w>
color és</w>
c ue</w>
c ement</w>
bot tes</w>
b el
ath le
é té</w>
vo ie</w>
vari ous</w>
t ex
sho t</w>
sa x
rou lant</w>
r ing</w>
po t</w>
pain ted</w>
l umi
k en</w>
flow er</w>
fi gh
ffe e</w>
dri ving</w>
co ffee</w>
bul l</w>
boo ts</w>
bl oc
bal lons</w>
b it
au di
au d
at or</w>
am is</w>
af fi
youn ger</w>
véhic ule</w>
vehic le</w>
tend ue</w>
tem ps</w>
st re</w>
spor ts</w>
skat eur</w>
sax oph
ro ses</w>
pilo te</w>
par ked</w>
pa int</w>
maga z
long ue</w>
l ying</w>
in f
h ou
go ggles</w>
gentlem an</w>
g ue</w>
fl ying</w>
drum s</w>
doig t</w>
cou pe</w>
cou leurs</w>
barbe cue</w>
all ée</w>
âg ées</w>
ver tes</w>
t ons</w>
t on
stu dents</w>
pos ition</w>
pat in
m ets</w>
le ans</w>
la s</w>
indi an</w>
in st
imm eu
i al</w>
habill és</w>
frap pe</w>
fla gs</w>
es p
en tes</w>
cu p</w>
com ing</w>
cer ta
ca pu
bik er</w>
w et</w>
tal ks</w>
sur face</w>
sk ier</w>
s pla
roll er
ro deo</w>
prépar ant</w>
prof it
practi cing</w>
po teau</w>
pet ites</w>
pein ture</w>
n o</w>
list ening</w>
la d
jo gging</w>
jar din</w>
h it</w>
ght ly</w>
fal aise</w>
ey es</w>
en g
d onn
cô te</w>
ct eur</w>
coun try</w>
bâti ments</w>
bu cket</w>
é co
ven deur</w>
t our</w>
t ball</w>
sw inging</w>
sto p</w>
snowboar deur</w>
scen e</w>
sa le</w>
prepar es</w>
polici er</w>
pl on
pav ée</w>
on loo
il lage</w>
gr av
ga z
fro -
fil s</w>
d é</w>
d au
c entre</w>
bot tle</w>
bi en</w>
aut om
ati ons</w>
al ley</w>
a fro-
ér a</w>
vit rine</w>
traver sant</w>
skat ing</w>
sa fet
safet y</w>
rock y</w>
re d-
rassembl ent</w>
par ler</w>
pa dd
news paper</w>
marti aux</w>
m er
kic king</w>
ju ste</w>
jack ets</w>
i sse</w>
fr on
en -
el l
d ou
cla ss
capu che</w>
cam éra</w>
ca se</w>
c ai
bu t
bou le</w>
av oir</w>
afri ca
éle ctri
wal k
w aves</w>
sol d
s n
re t</w>
r en
pla t
n age</w>
musici ens</w>
multi color
man ge</w>
lad der</w>
it ems</w>
i ght</w>
i ff
i d
ho t</w>
fonc é</w>
fac ing</w>
emp ty</w>
diff er
compet ition</w>
cla ss</w>
bun ch</w>
bow l</w>
boute ille</w>
bl ouse</w>
b and
audi ence</w>
w ait</w>
tran s
teen ag
t au
surf eur</w>
snow board</w>
skateboar ding</w>
sh oo
ro of</w>
re ce
publ ic
pré sen
plan e</w>
pa g
p ée</w>
onloo kers</w>
milit ary</w>
mat éri
man gent</w>
la bor
ig ne</w>
hol d</w>
gr ands</w>
glo ves</w>
ge ts</w>
ga ther</w>
g on</w>
f our
en ou
differ ent</w>
cour ses</w>
blan ket</w>
ty pe</w>
st aring</w>
ss é</w>
ray ée</w>
pe u</w>
para chu
ma sque</w>
gy m</w>
gi ving</w>
festi val</w>
er ed</w>
drin ks</w>
de sk</w>
cow- boy</w>
couver ture</w>
chev aux</w>
chan tier</w>
c leaning</w>
bicyc les</w>
ac h</w>
é tendue</w>
é lo
v ice</w>
sli ding</w>
ski eur</w>
sig ns</w>
sel f</w>
s ite</w>
ra iling</w>
prépar ent</w>
poin ting</w>
p et</w>
o s</w>
mea l</w>
lon gues</w>
la wn</w>
l ire</w>
indivi du
h aut
for e</w>
compe ting</w>
colli er</w>
ch ée</w>
bu sin
be fore</w>
ballo on</w>
at h</w>
ass e</w>
al im
écr an</w>
éch elle</w>
ra sse</w>
r on
pi an
matéri el</w>
m om
m en
li eu</w>
lea ps</w>
ill é</w>
hap py</w>
gather ing</w>
eu re
esp ace</w>
ell ement</w>
dro ite</w>
dis play</w>
col le
cha sing</w>
bri de</w>
br and
balan ce</w>
an ge</w>
adolesc ent</w>
écla bou
é char
y ork</w>
y er</w>
t ers</w>
sof tball</w>
s ent
pro fon
per s</w>
pen che</w>
pe lu
pa gne</w>
o i</w>
man ches</w>
lan c
k a
it y</w>
h eure
discu tent</w>
d le</w>
cti ve</w>
c ré
c ers</w>
bir d</w>
b s</w>
ati ve</w>
âg és</w>
we dding</w>
w er</w>
vo le</w>
vege tables</w>
v end</w>
tir ant</w>
ti v
t ée</w>
t é
stre ets</w>
spea king</w>
sol di
sk is</w>
saxoph one</w>
sal on</w>
rou le</w>
pre mier</w>
pouss ette</w>
plat form</w>
par t
ou verte</w>
orche stre</w>
ma sk</w>
it aire</w>
iss ant</w>
in spec
ima ge</w>
g on
fil et</w>
fe et</w>
en te</w>
effect u
desc endant</w>
cro ss
clu b</w>
class room</w>
can ne</w>
c ent
bul les</w>
b ant</w>
allong ée</w>
ag enou
é tran
w ra
vi ent</w>
tea ms</w>
t és</w>
surf ing</w>
stre t
son s</w>
sh ed</w>
scre en</w>
ru g
rempli e</w>
qu ant</w>
pom piers</w>
pian o</w>
photograph e</w>
pe u
ou fla
oufla ge</w>
obstac le</w>
m ouv
ligh ts</w>
immeu ble</w>
hel mets</w>
h al
fi g
fi c</w>
cu t</w>
co iff
cam ouflage</w>
bat terie</w>
base -ball</w>
ave d</w>
av ion</w>
équi pes</w>
é n
v endant</w>
tri es</w>
ti que</w>
stic ks</w>
som bre</w>
sin gs</w>
sil ver</w>
s prin
ri vage</w>
ri st
ri r</w>
r ire</w>
prom en
pos é</w>
po isson</w>
per for
perfor man
pel le</w>
pa ss</w>
mani fe
la isse</w>
la ire</w>
ki ssing</w>
in er</w>
ill er</w>
hu ge</w>
g oo
g old</w>
f all</w>
différ entes</w>
cycli st</w>
coun ter</w>
ch ent</w>
c â
brea k</w>
ban dan
b ea
a m</w>
viol on</w>
va gues</w>
ur ban</w>
traditi onal</w>
ter rasse</w>
te -
swe e
sem bl
se en</w>
s ea
recou verte</w>
ra pi
pur se</w>
po t
po dium</w>
pl om
performan ce</w>
pau se</w>
musici ans</w>
le v
ir ie</w>
g âteau</w>
fa ther</w>
ele ctri
dé gu
dé cor
dire ction</w>
de cor
cr av
cou vert</w>
com ple
climb s</w>
chin o
c and
b on</w>
ati que</w>
an tes</w>
ac ks</w>
y -
wa its</w>
viol ette</w>
v ic
tau reau</w>
tal k</w>
surf board</w>
st roller</w>
sm o
qu e
pet te</w>
ni que</w>
mom ent</w>
mir ro
ma g
lo cal</w>
l and
in g
ill ant</w>
foot bal
figh ting</w>
dr y</w>
cou cher</w>
cli ents</w>
bo issons</w>
bar e
b at</w>
at o
an g</w>
équi p
walk way</w>
viol in</w>
ve l</w>
tr un
to wn</w>
thro w</w>
sun set</w>
sta ir
sp ra
slee p</w>
sa me</w>
s é
rug by</w>
oc cu
ni c</w>
musi cal</w>
march er</w>
la p</w>
hoo p</w>
h ot
ga g
g al
fem ales</w>
f an
ess aie</w>
end ro
end or
end ent</w>
di ving</w>
di o</w>
comp toir</w>
comm er
c av
busin ess</w>
bou e</w>
blo wing</w>
b ers</w>
attemp ting</w>
a s
a ble</w>
échar pe</w>
w ear</w>
traver ser</w>
tabl eau</w>
sty le</w>
se u
se ction</w>
run ner</w>
rand onnée</w>
polici ers</w>
out f
n é</w>
montr ant</w>
mari ée</w>
lif e</w>
la un
kne eling</w>
ho le</w>
escal ator</w>
escal ad
en ter
e br
cu stom
color é</w>
cas cade</w>
caf e</w>
anim ée</w>
ach et
électri que</w>
wr iting</w>
w aving</w>
un s</w>
t el
sur plom
st ar
ski ing</w>
shoul der</w>
rist mas</w>
p â
outf its</w>
ois eau</w>
mi ro
mari age</w>
l and</w>
isi er</w>
is t</w>
in ten
he av
en tal</w>
dor m
cor des</w>
cl ou
ci ment</w>
chau ve</w>
ch és</w>
ch ristmas</w>
bo isson</w>
blond- haired</w>
bal d</w>
b m
arti st</w>
ar gent</w>
th ou
si on</w>
sa ys</w>
rassembl ées</w>
pré ci
pelu che</w>
o per
mo b
min i
ma l</w>
ma de</w>
labor at
fa bri
ex cit
ent re
crav ate</w>
coure urs</w>
c é
c ed</w>
brun ette</w>
bo î
attra pe</w>
al low</w>
affi che</w>
ac ou
étudi ants</w>
volle y</w>
v an</w>
un is</w>
tu y
spe e
sou ff
s lo
rou sse</w>
rol ling</w>
profon de</w>
pi ge
par oi</w>
pa ys</w>
p ai
over looking</w>
offic er</w>
obser ve</w>
obje ts</w>
mirro r</w>
lo cks</w>
le g</w>
la tion</w>
jou euse</w>
is é</w>
in clu
i ère</w>
h ur
fou l
fac es</w>
e sse</w>
dre ad
di t</w>
co o
chin ese</w>
che ck
bub bles</w>
ath lè
at te
ar bit
al one</w>
af fron
adver ti
adolesc ents</w>
- po
é gli
whe el</w>
visi on</w>
v a</w>
traditi onn
teen age</w>
ta sse</w>
surf e</w>
su p
ra in
prom enant</w>
pi ét
p é</w>
p y
p i</w>
ol ym
n ant</w>
mu d</w>
le gs</w>
ke y
j un
in c
ic i</w>
hu la</w>
head phones</w>
g é
ex er
electri c</w>
d en
d ant</w>
coure ur</w>
con ta
col lar</w>
clo se</w>
cheer lea
cel ebr
c y</w>
c &apos;</w>
ballo ons</w>
vi er</w>
tro u</w>
ti r</w>
sw im</w>
sti c</w>
st un
squ are</w>
si eur</w>
ri er</w>
recou vert</w>
qu er</w>
pi t</w>
pass er
pass age</w>
pa p
om bre</w>
ne ts</w>
n ers</w>
mon sieur</w>
mo ti
miro ir</w>
ma qu
jou ets</w>
i ent</w>
hel ping</w>
gro cer
gi ant</w>
ful ly</w>
foul ard</w>
fi xing</w>
dread locks</w>
do or
cu ir</w>
condu it</w>
chem isier</w>
c ts</w>
c le
bri ghtly</w>
ac tion</w>
a sleep</w>
él è
é ro
we ars</w>
vol ant</w>
ve stes</w>
umbrel las</w>
ta ille</w>
sw ings</w>
suspen du</w>
sta dium</w>
st ade</w>
sent ation</w>
sand als</w>
rem or
promen ade</w>
pou ssi
pla te</w>
offic ers</w>
off ice</w>
o le</w>
mé tal</w>
mot ard</w>
mem bres</w>
ma kes</w>
m eat</w>
lea ther</w>
ill ing</w>
i de</w>
hi king</w>
go al</w>
fore ground</w>
flo t
fig ures</w>
enjo y</w>
en se
dan cers</w>
ch ur
c les</w>
c ent</w>
bare foot</w>
ap préci
-po m</w>
épau les</w>
wi th
tu be</w>
to ys</w>
ten d</w>
ss er</w>
sin ger</w>
sho v
seu l</w>
sand ales</w>
s qu&apos;</w>
s av
s ar
rou e</w>
qu ettes</w>
pom -pom</w>
pier res</w>
pass ing</w>
p t</w>
ori ental</w>
multi colored</w>
man ège</w>
magaz ine</w>
ke ts</w>
je tte</w>
hoo d</w>
gar age</w>
endro it</w>
discu tant</w>
dir ty</w>
dark -haired</w>
cé ré
cour ts</w>
cou per</w>
ch at</w>
bo it</w>
bm x</w>
bal ls</w>
arbit re</w>
am ong</w>
am bu
én or
écou teurs</w>
è nent</w>
wa shing</w>
wa gon</w>
vi deo</w>
tra f
traf fic</w>
t él
sh allow</w>
sa ire</w>
s ée</w>
re ment</w>
qu arti
quarti er</w>
pou ssant</w>
photograph er</w>
lea sh</w>
ki ck</w>
ju squ&apos;</w>
jam be</w>
j ong
j ol
il le
gol den</w>
ga ge</w>
g am
fal ling</w>
de ep</w>
cou pant</w>
clo th</w>
chur ch</w>
cav al
bl ement</w>
be low</w>
b ent</w>
égli se</w>
z er</w>
w ard</w>
vi ve</w>
vi ande</w>
um ent</w>
tour ne</w>
te et
tatto o</w>
ta x
ta pe</w>
souri ante</w>
re présen
r ang
pra irie</w>
plan tes</w>
pic king</w>
partici pat
p ne
p h</w>
ot h</w>
n ess</w>
lap top</w>
l one</w>
l ers</w>
jun gle</w>
hea ds</w>
habill ées</w>
h eld</w>
guit ari
gh ter</w>
gar den</w>
fu me</w>
fri end</w>
fli p</w>
f ans</w>
exam ine</w>
er ie</w>
dr um</w>
door way</w>
c et</w>
bo l</w>
appu y
ai sons</w>
accor dé
accor di
z e</w>
wel l</w>
v ac
um in
tuy au</w>
tout -
thro ws</w>
sau ve
ré uni
ru elle</w>
rest ing</w>
remor que</w>
rea ching</w>
ra is
qu o
prote ction</w>
pon d</w>
p les</w>
p aved</w>
p air</w>
or n
on ne</w>
na geant</w>
multicolor e</w>
mouv ement</w>
mo ving</w>
mo ve</w>
mem bers</w>
ma ke
m b</w>
m ales</w>
ka ki</w>
k ha
id enti
hi gh
ha w
fol lo
f un</w>
eu sement</w>
entr ée</w>
effectu ant</w>
dé sert</w>
dra wing</w>
di gging</w>
di en</w>
de aux</w>
dd le</w>
dau ghter</w>
conver sing</w>
ci al</w>
ch al
cano e</w>
cai sse</w>
c ting</w>
c em
blo ck</w>
bat te</w>
bar rière</w>
bal con
arr êt
am i</w>
accordi on</w>
a qu
w ich</w>
vir age</w>
vi de</w>
tur n</w>
tout es</w>
th em
teet h</w>
ta ck
t ops</w>
swee ping</w>
stra de</w>
sle d</w>
sig ne</w>
sho ws</w>
sho vel</w>
sauve tage</w>
sand wich</w>
ré unis</w>
ru iss
rela xing</w>
rea d</w>
re pose</w>
re fle
ra il
pre pare</w>
par ents</w>
ol s</w>
m it
let tes</w>
inter section</w>
ig nent</w>
ic i
hoo die</w>
her e</w>
gon fla
fli es</w>
e e</w>
di vers</w>
d om
d a</w>
cou rir</w>
col d</w>
chino is</w>
cer cle</w>
cat ching</w>
c on</w>
c at</w>
bâ tons</w>
bl ou
bicycli st</w>
at é</w>
accrou pi</w>
accordé on</w>
é ti
tron c</w>
travaill er</w>
tr om
t ar
surplom bant</w>
sta che</w>
sprin k
sil hou
s y
s pi
ru es</w>
représen tant</w>
ra quette</w>
pul ls</w>
poin ts</w>
pl ants</w>
photogra ph</w>
pass es</w>
parachu te</w>
onn ette</w>
n ou
mon ie</w>
lea ping</w>
laborat oire</w>
la b</w>
in dre</w>
il es</w>
hu gging</w>
hau ts</w>
ha ir
h ô
gi ves</w>
fer m
e th
do ors</w>
de sert</w>
cycli sts</w>
color ée</w>
co ats</w>
che fs</w>
cat ches</w>
bor dée</w>
ball er
bal u
ba th
ato p</w>
êt es</w>
énor me</w>
é to
é cha
wrest ling</w>
up side</w>
under ne
underne ath</w>
tél escope</w>
tri cks</w>
tr ave
stun t</w>
slee ps</w>
si e
sie ste</w>
shoul ders</w>
sca ff
s um
ruiss eau</w>
rou lent</w>
ri ent</w>
pu p
prom ènent</w>
profit ant</w>
produ it</w>
pi qu
partici pant</w>
p in</w>
ni val</w>
n ouv
me di
m ing</w>
long -
kar até</w>
kar ate</w>
is ée</w>
is er</w>
ir d</w>
ill s</w>
i ste</w>
ho se</w>
fum ant</w>
f lan
exer c
e m</w>
e ar
donn ant</w>
do c
céré monie</w>
cri cket</w>
con tra
comb at</w>
clo sed</w>
cli mb</w>
car nival</w>
ca b
c tron
bo w</w>
bo un
bl y</w>
basket -ball</w>
at ure</w>
ar ro
al ign
ac com
a is</w>
écha f
with out</w>
we t
w ards</w>
vêt ement</w>
vo ir</w>
vo ici</w>
v in</w>
trun ks</w>
the se</w>
ter min
tel escope</w>
su i
stu ff
spla shing</w>
sembl ent</w>
ru b
roll ers</w>
ri ant</w>
rang ée</w>
proje ct</w>
professi onn
pl ong
pin s</w>
pe de
pede stri
pati o</w>
p un
na is</w>
mu ral</w>
milit aire</w>
mat e</w>
m at</w>
lo a
l ines</w>
k il
individu als</w>
in ant</w>
ho w</w>
gymna se</w>
grim pe</w>
g un</w>
for mal</w>
fi que</w>
eu ses</w>
er ing</w>
enneig é</w>
en gag
dri ver</w>
do l
d une</w>
cyc les</w>
cam pagne</w>
bro sse</w>
boî te</w>
bat teur</w>
balu strade</w>
b rou
b ati
al ler</w>
a ff
épau le</w>
élo igne</w>
écou te</w>
écou tant</w>
v endre</w>
um p
tou che</w>
tiss u</w>
ta mb
t t</w>
t est</w>
su sp
stu dio</w>
sol itaire</w>
si ège</w>
se pt</w>
s eat</w>
run ners</w>
ro und</w>
ri ed</w>
qu ad</w>
produ ce</w>
pro jet</w>
pou belle</w>
por tra
piét ons</w>
pi zz
perform er</w>
pass en
pa in</w>
op posing</w>
onne l</w>
netto ie</w>
ne z</w>
m eu
lo un
jou r</w>
jo y
hi ker</w>
h all</w>
ga ges</w>
fi ght</w>
escal iers</w>
entour ée</w>
endor mi</w>
en vir
el ess</w>
effect ue</w>
discu ssion</w>
din ner</w>
dess ous</w>
der by</w>
dan ces</w>
d î
custom ers</w>
chem ises</w>
can e</w>
c elle</w>
bon dée</w>
bo oth</w>
an ci
al ls</w>
éclabou ss
échaf aud
â ne</w>
x e</w>
woo ded</w>
wat ers</w>
vo it</w>
v al
trava il
tout- petit</w>
them sel
themsel ves</w>
ta ken</w>
t êtes</w>
t ail</w>
sur ve
stra w</w>
st er
ssem ble</w>
sp ir
so it</w>
so ir
soir ée</w>
sk in
sho e</w>
ser vi
rou lettes</w>
re li
pr ati
pe ignant</w>
partici pent</w>
pa ille</w>
op pos
olym pi
ob el
netto yant</w>
ne ck</w>
moti fs</w>
mo der
mat ching</w>
make up</w>
mag ni
lun ch</w>
lumi ères</w>
lumi ère</w>
le tte</w>
la ys</w>
l in</w>
jam bes</w>
inf ant</w>
inclu ding</w>
heure ux</w>
gli ssant</w>
gg ling</w>
gar e</w>
g obel
g ate</w>
f ér
f all
fall en</w>
ex p
escalad ant</w>
e y</w>
e ure</w>
doig ts</w>
desc endent</w>
d ures</w>
cu l
cross walk</w>
color ées</w>
co u</w>
cir cle</w>
cha î
cent er</w>
ca ge</w>
c rying</w>
c ray
boo ks</w>
bicycli sts</w>
bask ets</w>
bal aie</w>
ap pla
afro- américain</w>
ach è
ê tant</w>
éco le</w>
é cu
è rement</w>
v illage</w>
thou si
th ird</w>
ten ir</w>
tax i</w>
susp end
stuff ed</w>
st ati
sold ats</w>
se wing</w>
s o</w>
répar er</w>
ré cu
rou x</w>
re st</w>
ra cket</w>
pul led</w>
pr is</w>
pom pier</w>
pic nic</w>
pi pe</w>
pantal ons</w>
or g
o ts</w>
no se</w>
ne aux</w>
n on</w>
mon tant</w>
met tant</w>
long- slee
l et</w>
ig n</w>
i gh
hau te</w>
ham mer</w>
gymna ste</w>
gar dien</w>
faç on</w>
f e</w>
en thousi
do wn
di ver
d al
commer cial</w>
co té</w>
ch ass
ce in
ca pe</w>
ca dre</w>
bar re</w>
ba m
b a</w>
attemp ts</w>
at eurs</w>
alim enta
ag it
ag ent</w>
acro bati
a br
ét re
équip ement</w>
é chi
y o
vo y
v éri
util isent</w>
tra sh</w>
t ele
super marché</w>
st ant</w>
spea ks</w>
sou rire</w>
se ven</w>
se ule</w>
sca pe</w>
sand y</w>
roller bla
randonne urs</w>
randonne ur</w>
ra p
pige ons</w>
pen ché</w>
pass er</w>
pass ag
para sol</w>
par ta
op ening</w>
mon tent</w>
mi x
man teaux</w>
m self</w>
li ft</w>
lan çant</w>
k a</w>
je un
je tée</w>
j ockey</w>
iz ed</w>
it ting</w>
in form
in fla
i x</w>
hor iz
hi mself</w>
hi kers</w>
hel p</w>
gymna st</w>
guitari ste</w>
grocer y</w>
gri l</w>
gr in
gonfla ble</w>
go es</w>
ge st
g é</w>
g gage</w>
fre sque</w>
faç ade</w>
f er</w>
f arm
en a</w>
de urs</w>
d dy</w>
cu le</w>
ct ed</w>
cro sse</w>
cover ing</w>
cou v
cor ps</w>
con tre
cha in</w>
certa ins</w>
ca si
ca le</w>
brea k
brand it</w>
bon dé</w>
bat tant</w>
ban k</w>
balcon y</w>
bal con</w>
ba gages</w>
athle te</w>
at ter
arti cles</w>
américa ins</w>
œ ur</w>
w ed</w>
w ea
vo ile</w>
v ée</w>
tu b</w>
traditionn els</w>
teenag ers</w>
tatou age</w>
ta bou
t ly</w>
stair case</w>
ss ée</w>
slo pe</w>
s cou
ré fl
re ssembl
re pa
quo ise</w>
que ue</w>
pu ts</w>
pu shes</w>
pla teau</w>
pla t</w>
pit cher</w>
piqu e-
ph ant</w>
pedestri ans</w>
parti e</w>
p tion</w>
ouv re</w>
or dures</w>
on ed</w>
no t</w>
na p</w>
mon de</w>
march and
m é</w>
li vres</w>
li es</w>
lanc eur</w>
k ind</w>
in ed</w>
in door</w>
heav y</w>
haut es</w>
fore ign</w>
fl or
fi sh
f ur
ess ay
e ven
dé ser
dé pla
dé jeun
dri ves</w>
de ck</w>
dan cer</w>
d ure</w>
cou ché</w>
co w</w>
co a
cl ear</w>
chev au
cheerlea ders</w>
chan tent</w>
cha ses</w>
cano ë</w>
bru sh</w>
bro wn
box es</w>
bl i
be ver
au -
atten tiv
américa ine</w>
adver se</w>
ad mir
ô le</w>
ét ang</w>
éco ss
wra pped</w>
wet suit</w>
ve ur</w>
va che</w>
tro isi
troisi ème</w>
trav aux</w>
tou te</w>
ti c</w>
ten tent</w>
teenag er</w>
t a</w>
str ing</w>
ste ep</w>
spor ti
shi p</w>
sha king</w>
se e</w>
scu le</w>
s é</w>
ru ban</w>
rassembl és</w>
ram bar
ram ass
pri se</w>
por ch</w>
ph on
part ment</w>
par cours</w>
over alls</w>
out ils</w>
or ig
ois eaux</w>
o th
n a</w>
mé di
moto s</w>
mon ti
milit aires</w>
march ing</w>
mar teau</w>
lu ge</w>
lo g</w>
lin ge</w>
le vant</w>
k n
k et
is és</w>
in té
h umi
gr at
gentlem en</w>
fr an
fa st</w>
fa shi
f un
f ly</w>
de vice</w>
circu lation</w>
che z</w>
bo xing</w>
bloc ks</w>
appu ie</w>
anim aux</w>
amu sent</w>
al pin
ai ss
affron tent</w>
a éro
éclabouss ures</w>
è que</w>
z ed</w>
water fall</w>
trot tin
tra cks</w>
ten tant</w>
swim s</w>
stre am</w>
st le</w>
st ers</w>
sp ace</w>
sold at</w>
sit u
she et</w>
sh aving</w>
se a</w>
sal to</w>
sal o
s par
red- hair</w>
rea ches</w>
re fer
re cor
ra f
ra c
r ent</w>
qu é</w>
pu ddle</w>
prof ite</w>
pour ing</w>
pos ter</w>
poli cem
po is</w>
pique- nique</w>
pi éton</w>
pav é</w>
pati ent</w>
passer elle</w>
pa st
n ice</w>
n ative</w>
mo ves</w>
mo de
mach ines</w>
m p
lé g
lu ggage</w>
li ving</w>
lan gue</w>
la ss
kic ks</w>
kha ki</w>
ke ys</w>
jum p
j o</w>
j ap
it u
it al</w>
inst al
i -
humi de</w>
hea ded</w>
g -
frap pant</w>
fin gers</w>
f ile</w>
even ing</w>
enjo ys</w>
e i
cou lo
com ment</w>
clou dy</w>
chev auche</w>
chan teur</w>
cham bre</w>
ch or
cau casi
car ton</w>
br on
bo ats</w>
athlè te</w>
arr êt</w>
appla udi
an e</w>
al ie</w>
a ge
2 0
windo ws</w>
wheel chair</w>
w ns</w>
vi e</w>
v tt</w>
ur bain</w>
téri eure</w>
tra cteur</w>
touri stes</w>
tom be</w>
ti rer</w>
th é
th s</w>
t- être</w>
ster n</w>
soldi ers</w>
soldi er</w>
shov eling</w>
sci enti
salo pette</w>
sal u
s wor
s pon
réfl échi
reli gi
red- haired</w>
ra ck</w>
publ ique</w>
prote ctive</w>
pr êt</w>
po les</w>
plu ies</w>
pl ant</w>
pi e</w>
peu t-être</w>
pat tes</w>
para pluies</w>
pal m</w>
padd ling</w>
ore illes</w>
o d
ne ck
monti cule</w>
m él
m ex
le dge</w>
laun dry</w>
lau gh</w>
ki o
jam a</w>
in stru
ill on</w>
han gs</w>
guit ar
gu ard</w>
gra ph
gar b</w>
g ant</w>
g a</w>
fo rest
f air</w>
ey e</w>
ex hi
em er
e k</w>
dî ner</w>
den im</w>
de c
dan ser</w>
d ins</w>
cre u
cra f
colo r</w>
clo se
circu it</w>
cher che</w>
che cking</w>
cha se</w>
caval ier</w>
brown -haired</w>
bou quet</w>
bor ne</w>
bo ire</w>
bal ai</w>
bai g
b it</w>
b asse</w>
atte indre</w>
atta ched</w>
ar ena</w>
appro a
ac ci
1 2</w>
w il
vi déo</w>
uni que</w>
tra ctor</w>
tr é
tor y</w>
te ch
tal ons</w>
st rol
skir ts</w>
shoo ting</w>
sh ado
servi ette</w>
scaff ol
sa w</w>
ri b
re tourn
rassembl ement</w>
rail road</w>
r ée</w>
qu ar
pu t</w>
pil y</w>
pa pers</w>
p è
p -
oppos ite</w>
onn é</w>
musici en</w>
motor cycles</w>
mon str
mon o
mob ile</w>
li ve</w>
l ants</w>
k is
kis s</w>
ju pes</w>
ju ggling</w>
joy eusement</w>
ja mas</w>
in o
i vent</w>
hur dle</w>
hap pily</w>
ght ers</w>
fér ence</w>
fla que</w>
fi x
fabri c</w>
ex pre
er ole</w>
en té</w>
dorm ant</w>
différ ents</w>
cur b</w>
cou verte</w>
cor n</w>
col ors</w>
co ol</w>
cle an</w>
ca su
ca deau</w>
c kets</w>
brea d</w>
br é</w>
bla ck
bir ds</w>
bar ri
balan cing</w>
back yard</w>
ar ène</w>
amu sant</w>
ambu lant</w>
all em
air plane</w>
ai d</w>
a ine</w>
élè ves</w>
é v
é ta
w ine</w>
ver res</w>
tro pi
trans portant</w>
to ols</w>
tabou ret</w>
t ong
tong ue</w>
t ine</w>
st ool</w>
st ea
sou s-
skin ned</w>
si zed</w>
sh ade</w>
s ure</w>
s quat
s pot
ri ders</w>
ray ures</w>
rambar de</w>
ra deau</w>
py jama</w>
portra it</w>
po ts</w>
pav ement</w>
pancar tes</w>
ordin ateurs</w>
nu age
nat ure</w>
multi ple</w>
mon ter</w>
met tre</w>
manife station</w>
m ound</w>
m c
lu t
land scape</w>
la ce</w>
kne e</w>
key board</w>
infla table</w>
indi en</w>
ill ent</w>
gro om</w>
gr an
go alie</w>
gar ba
garba ge</w>
ga s</w>
g ou
fra me</w>
for t</w>
footbal leur</w>
fonc ée</w>
flo ating</w>
f light</w>
enter ta
embra sse</w>
ei ther</w>
déser te</w>
dire ctions</w>
de ment</w>
danse use</w>
d on</w>
cur ly</w>
coulo ir</w>
con tr
con es</w>
con c
close up</w>
cla vier</w>
che ur</w>
chan t
ch ac
bran ches</w>
br is</w>
boar ds</w>
aud it
attentiv ement</w>
ar row</w>
appr êtant</w>
alimenta ire</w>
ag ri
éclair ée</w>
we l</w>
wal ls</w>
ver se</w>
ve lo
v end
télé phon
ty ard</w>
trou vent</w>
trottin ette</w>
tri cycle</w>
tr um
tou ching</w>
to m</w>
ti le</w>
ten u</w>
te- forme</w>
sy n
swim suit</w>
surf ant</w>
sum mer</w>
stu dent</w>
ste p</w>
st y</w>
st um
spor ting</w>
skateboar ds</w>
skat es</w>
silhou ette</w>
sho wn</w>
sh el
ser ving</w>
sel l</w>
scaffol ding</w>
san ta</w>
rece i
re gi
re d
ra ft</w>
qu it
qu ent</w>
public ité</w>
professi onal</w>
poussi ère</w>
pos t</w>
po n</w>
pla te-forme</w>
per cu
pa jamas</w>
p ack
out h</w>
org an
nav ig
n ap
musici an</w>
mon ument</w>
mari é</w>
mar ried</w>
ma is</w>
m urs</w>
m el
lè vent</w>
laugh s</w>
lan ter
jo h
i a</w>
hu it</w>
horiz on</w>
hor se
haw k</w>
goo ds</w>
g ie</w>
fréqu enté</w>
fre sh</w>
footbal leurs</w>
flor al</w>
fin i
ferm és</w>
fe e
f ir
ex position</w>
employ és</w>
e ats</w>
discu ter</w>
desc endre</w>
de l
d y
cô tés</w>
cour tyard</w>
conta iner</w>
condu isant</w>
clô tur
chauss ettes</w>
ch op
cand y</w>
cami onnette</w>
cam p</w>
ca d
bé ret</w>
bu ying</w>
br illant</w>
bot tom</w>
bo ivent</w>
bik ers</w>
bandan na</w>
bandan a</w>
bal les</w>
bal ade</w>
au to
atten tion</w>
assi ette</w>
ass em
arti f
appe ar</w>
ap ple</w>
ai ent</w>
échafaud age</w>
â tre</w>
z a</w>
yo ga</w>
y ou</w>
wel ding</w>
w e</w>
w ar
visi ble</w>
vis ages</w>
vi ves</w>
v ely</w>
ur ba
uni ver
to wel</w>
ti es</w>
th um
tex as</w>
ter y</w>
t op
suspen ded</w>
stret ched</w>
spra y</w>
soc ks</w>
si mi
sha ped</w>
se ts</w>
ru ral</w>
rest s</w>
re bord</w>
r in
profit ent</w>
professionn elle</w>
pr int</w>
pos iti
poin te</w>
po issons</w>
play ed</w>
pizz a</w>
ph er
per che</w>
our s</w>
ou vert</w>
nou ve
ne qu
nat ation</w>
n &apos;</w>
mp ;</w>
mar ket
market place</w>
mar ine</w>
man nequ
magaz ines</w>
long -haired</w>
le ver</w>
lass o</w>
l ou
kne els</w>
jerse ys</w>
jap an
japan ese</w>
inc en
in vol
ill és</w>
i ca
hoo ded</w>
her bes</w>
ha y</w>
h ill
gran des</w>
ger man</w>
gam in</w>
fo in</w>
fo cu
ff y</w>
feu ille</w>
fen ced</w>
f é
f -
e ars</w>
don al
di stri
decor ated</w>
crou ches</w>
cou ples</w>
cou dre</w>
cor pul
con férence</w>
co r</w>
cho ir</w>
chevau chant</w>
cheer ing</w>
chauss ée</w>
certa ines</w>
cau ght</w>
carri age</w>
cam ping</w>
ca ban
bub ble</w>
bu issons</w>
bu cking</w>
boute illes</w>
bar re
ball et</w>
backp acks</w>
back wards</w>
b ass
attra ctions</w>
atta ché</w>
at v</w>
ass or
an ti
allong és</w>
adverti sement</w>
acou stique</w>
acou stic</w>
ac ti
&a mp;</w>
étran ger</w>
è che</w>
wa ys</w>
ver do
v ét
v ous</w>
v eau</w>
under water</w>
tur quoise</w>
travail leurs</w>
tir ent</w>
thro wn</w>
tea m
t i</w>
sto ve</w>
sto re
stic king</w>
st op
st ones</w>
st on</w>
st ed</w>
st art</w>
sou lève</w>
sin k</w>
she ep</w>
ser vice</w>
se ems</w>
sa pin</w>
sa iling</w>
s pin
s ai
récu pé
ré pare</w>
ressembl ant</w>
re ssemble</w>
rais ed</w>
r é</w>
qu el</w>
pre sentation</w>
pos és</w>
pos si
po nent</w>
pla za</w>
pla que</w>
pla fond</w>
pe ace</w>
pat ter
partici pe</w>
pap a</w>
pain ts</w>
p out
p ir
op ponent</w>
on ly</w>
om brel
o ed</w>
nour ri
ni ght
ne on</w>
mon ey</w>
mo st</w>
mo m</w>
m o</w>
la crosse</w>
l y
jol ie</w>
is ées</w>
indi enne</w>
in ée</w>
i ment</w>
i ds</w>
har ness</w>
guit ars</w>
gra dins</w>
gr ave
gr and
goo d</w>
gobel et</w>
gla ci
gla ces</w>
flu o</w>
fish er
fi ghters</w>
fauteu ils</w>
employ é</w>
embra ssant</w>
e g
dé tend
doc um
din ing</w>
d j</w>
cra ft</w>
compe te</w>
com e</w>
co équi
climb er</w>
check ered</w>
chaî ne</w>
ch ir
ce aux</w>
cas quettes</w>
car tes</w>
car te</w>
car d</w>
c a</w>
bru shing</w>
blou son</w>
bloc s</w>
bl ing</w>
ber ger</w>
basket teur</w>
ban jo</w>
b ons</w>
aéro port</w>
autom ne</w>
anim als</w>
amu sement</w>
air port</w>
ai dant</w>
aff aires</w>
adver saire</w>
ad ju
ac ting</w>
a éri
- covered</w>
û te</w>
ê ts</w>
éclair é</w>
é car
wa sh
vo l</w>
vehic les</w>
univer sit
u les</w>
ty pes</w>
tur ning</w>
tur ban</w>
trum pet</w>
trom pette</w>
ton gs</w>
tom ber</w>
tir é</w>
th ings</w>
tea cher</w>
tamb our</w>
ta ils</w>
t ut
str a</w>
ss on</w>
sor tant</w>
so da</w>
sh aring</w>
scu ba</w>
scou ts</w>
sa il
ré ci
réci pi
rou tine</w>
ro wing</w>
refer ee</w>
ra se</w>
ra me</w>
ra ils</w>
pro ba
pr êts</w>
por te-
por tables</w>
policem an</w>
plan ches</w>
photograph i
participat ing</w>
p ées</w>
orche stra</w>
oper ating</w>
onn ement</w>
netto yer</w>
ne y</w>
ne igh
nav y</w>
multicolor es</w>
mu zz
mu ddy</w>
mou illé</w>
mot ards</w>
mon it
mc donal
marchand ises</w>
mani pu
loa ding</w>
le gg
la te</w>
l o</w>
kil t</w>
iss ent</w>
individu al</w>
indivi d
individ us</w>
incen die</w>
in a</w>
ima ges</w>
identi ques</w>
ho sp
hi p
her self</w>
he els</w>
han g</w>
hal f</w>
h un
h um
h itting</w>
grave l</w>
gr illing</w>
fé min
fra î
fire fighters</w>
fee ding</w>
f le</w>
exam ining</w>
ex per
entraî nement</w>
entraî ne
enthousi a
en velo
déjeun er</w>
dé contra
dorm ir</w>
di g
danse urs</w>
cuisin ant</w>
cr ête</w>
conver se</w>
conc entr
con tro
combin aisons</w>
com pan
cla ssi
cho ses</w>
chac un</w>
caucasi an</w>
can i
c ru
c op
c one</w>
c o</w>
brand issant</w>
br ill
bot t
bi jou
ben ding</w>
be g
bat eaux</w>
ban cs</w>
autom atique</w>
attemp t</w>
athle tic</w>
arri ve</w>
arm y</w>
appuy é</w>
ang le</w>
allem and</w>
alim ents</w>
africa ins</w>
achet er</w>
acci dent</w>
ac t</w>
20 12</w>
- skinned</w>
é re
é pée</w>
é pou
é col
è ges</w>
y h
x y
wa ke
w ire</w>
vit esse</w>
va ste</w>
util iser</w>
urba ine</w>
téléphon ique</w>
tri e
touri sts</w>
tou cher</w>
to ol</w>
ten ts</w>
t il
snowboar ding</w>
smo ke</w>
si èges</w>
si l</w>
shoo t</w>
se ur</w>
s ma
ro pes</w>
regar d</w>
re trie
raf ting</w>
rac et
racet rack</w>
ra cer</w>
r an
quar ter
public itaire</w>
pré sentation</w>
profe ss
pro té
practi ce</w>
pout re</w>
pour chass
po ign
ple ure</w>
plan cher</w>
photograph s</w>
passen gers</w>
passag ers</w>
p en</w>
orig ine</w>
ori um</w>
ori ent</w>
ore ille</w>
ob sc
nav al</w>
nag ent</w>
n ur
mé dec
mu sel
mo hawk</w>
micro phones</w>
mi ère</w>
mi d</w>
men u</w>
magni fique</w>
mach in
machin ery</w>
ma p</w>
m ed</w>
lég èrement</w>
lé v
long-slee ved</w>
li qu
lan e</w>
l é</w>
l d</w>
kio sque</w>
kic k
k no
jump suit</w>
ju st
jong le</w>
je wel
horse back</w>
ho ops</w>
har nais</w>
hair cut</w>
h all
hall way</w>
gaz on</w>
fro id</w>
flot tant</w>
f leur</w>
entraî ne</w>
en ch</w>
embra ssent</w>
e ight</w>
décontra ct
drum mer</w>
dor é</w>
docum ents</w>
dis cours</w>
danse uses</w>
d ur</w>
cô nes</w>
câ lin</w>
cuisin ier</w>
cou ra
co b
ck ed</w>
chauss ure</w>
chan ter</w>
ch est</w>
ce iling</w>
car tons</w>
caban e</w>
c œur</w>
c ée</w>
c leans</w>
but ton</w>
bla zer</w>
ben ches</w>
bar s</w>
ban an
b y
audit orium</w>
arr ête</w>
ar t
ar ch
ar cade</w>
am p</w>
alpin iste</w>
align és</w>
al so</w>
ai der</w>
accro che</w>
a scen
a head</w>
êt ent</w>
éc ri
é tro
wi de</w>
whe els</w>
we ight</w>
vét éti
véri fi
véhic ules</w>
vo il
vie wing</w>
vi l</w>
ven ant</w>
vac u
um n</w>
u ri
tur ns</w>
tour no
tor ses</w>
tom bé</w>
tem ple</w>
tatto oed</w>
ta g</w>
swimm er</w>
su it
spee ch</w>
son g</w>
soc i
sk y
sk s</w>
she pher
ser v
s ly</w>
s ine</w>
s an</w>
récupé rer</w>
re posent</w>
pu ck</w>
prépar er</w>
pos er</w>
por ter</w>
po it
po d</w>
pne u</w>
pit al</w>
patin oire</w>
pal et</w>
p és</w>
ou sly</w>
oth èque</w>
op ér
obser vent</w>
o ven</w>
neigh bor
neighbor hood</w>
nav i
n ée</w>
n au
métalli ques</w>
mu stache</w>
mu se
motor cyclist</w>
mot eur</w>
mor e</w>
montr ent</w>
mode l</w>
me ss
mar t</w>
m â
la y</w>
kaya ks</w>
k y</w>
je ep</w>
it e-
in du
in doors</w>
ill umin
i an</w>
heure use</w>
head scarf</w>
he art</w>
grou ps</w>
gre yh
gre at</w>
go t</w>
go s</w>
fun ny</w>
fra is</w>
form ation</w>
fo ire</w>
fir st</w>
fil ets</w>
fan cy</w>
f el
f an</w>
envelo p
entraîne ur</w>
ense igne</w>
en tran
en nes</w>
em on
ele ctron
ea stern</w>
e ting</w>
dro it</w>
dri b
dir ige</w>
de -
dark -skinned</w>
d walk</w>
cu ri
cro sses</w>
con si
comm ence</w>
co ach</w>
cha que</w>
ch at
ch and
cer emon
car pet</w>
cam p
ca p
c ation</w>
bul l
bu y</w>
bu shes</w>
bu ff
bott les</w>
bli othèque</w>
bi bliothèque</w>
bath room</w>
bat tre</w>
bat h</w>
ban ner</w>
bam bo
b eau</w>
at er</w>
appréci ant</w>
appro che</w>
an ni
al le
agit ant</w>
accro ché</w>
a juste</w>
a b
œu vre</w>
œu fs</w>
y outh</w>
x i
wa it
vététi ste</w>
viol on
vend ors</w>
ven te</w>
v aiss
vaiss elle</w>
uniform ed</w>
télé vision</w>
tran spor
to il
th day</w>
te e</w>
tatto os</w>
tatou ages</w>
swor d</w>
stop ped</w>
st ro
st ants</w>
spin ning</w>
sou r
snow -covered</w>
sn ack</w>
sli des</w>
sig n
shepher d</w>
sel ls</w>
scoot ers</w>
s po
récipi ent</w>
ro ad
rib bon</w>
ri ce</w>
re tte</w>
rapi dement</w>
pâ te</w>
pu scule</w>
pro test</w>
poussi ére
pou ce</w>
possi bly</w>
por tes</w>
po lit
plon geant</w>
pl or
pet ting</w>
pein dre</w>
parti ellement</w>
pai x</w>
pa da
p ac
offic i
o on</w>
nouve au-
no tes</w>
ne u
n iture</w>
n arrow</w>
muse um</w>
mu sée</w>
mon t
mi ers</w>
mem bre</w>
medi cal</w>
mar oon</w>
maqu illage</w>
ma man</w>
m aisons</w>
lea ding</w>
le aving</w>
lar s</w>
lam pada
inf ir
indu stri
indi ens</w>
in o</w>
in ent</w>
in cl
im posant</w>
im pli
il la
i cal</w>
hô te
hô pital</w>
hosp ital</w>
hill side</w>
her be
hel ps</w>
gu i
grou pes</w>
grim pant</w>
grav ier</w>
gr iller</w>
gen cy</w>
g ée</w>
fla m
fa ite</w>
f ea
f aux</w>
f au
ex plor
eu ro
er ial</w>
en voie</w>
en coura
el ier</w>
e f
dé place</w>
dé cor</w>
dé col
dr om
dr es</w>
distri bu
di ents</w>
der ing</w>
de fen
cré puscule</w>
crou ching</w>
cre use</w>
cor n
condu cteur</w>
colle ge</w>
co la</w>
chau de</w>
chan son</w>
car naval</w>
bran che</w>
bou euse</w>
bor dé</w>
boar dwalk</w>
bo isé</w>
bir thday</w>
bill ard</w>
bikin is</w>
bever age</w>
bea m</w>
ba ss</w>
ba dge</w>
arti stes</w>
ap pli
anni ver
afro- américaine</w>
ado ssé</w>
achet ant</w>
ac tiv
ac c
étran ge</w>
vit re</w>
vege table</w>
v eless</w>
un icyc
un ic
tropi cal</w>
tram way</w>
to ire</w>
ti mes</w>
th o
ter ed</w>
t en</w>
syn ch
synch ron
strol l</w>
stret ching</w>
store front</w>
stor y</w>
star ting</w>
st ly</w>
ss és</w>
squat ting</w>
sprink ler</w>
souff le</w>
slee veless</w>
ski eurs</w>
skat ers</w>
ser rant</w>
se ats</w>
sav ou
s ym
s pan
s i</w>
ré es</w>
rub ber</w>
roche ux</w>
rece veur</w>
re ç
re ach</w>
ra le</w>
r ons</w>
quarter back</w>
pup py</w>
professi onnel</w>
pos ée</w>
pol ka</w>
poit rine</w>
po w
po il</w>
po ids</w>
plon ge
pla tes</w>
pit ch</w>
pie ces</w>
pi pes</w>
pi g
pi ck</w>
pe e
pap illon</w>
pan neaux</w>
pal miers</w>
pa per
p re</w>
p an</w>
out stretched</w>
orn ate</w>
opér ation</w>
op ing</w>
ombrel le</w>
oc yc
nau tique</w>
na ked</w>
n am
n ac
nac elle</w>
mou stache</w>
motor bike</w>
mont gol
montgol fi
mon ocyc
mo stly</w>
mi xing</w>
mem ber</w>
mannequ in</w>
man u
m all</w>
m al
lo ws</w>
li br
libr ary</w>
lev é</w>
lam pe</w>
la vant</w>
journ aux</w>
joh n</w>
it em</w>
inst all
inspec ting</w>
imm en
im pre
il er</w>
hu gs</w>
hot el</w>
har mon
hand stand</w>
gé ant</w>
guitar ist</w>
grim ace</w>
gi es</w>
g y</w>
fum ée</w>
fu sil</w>
fol ding</w>
flu ffy</w>
flo at</w>
flan c</w>
fi x</w>
ff e</w>
fer ence</w>
fen cing</w>
fe at
fai blement</w>
fac tory</w>
f ree</w>
f are</w>
excit ed</w>
eu rope</w>
eth nic</w>
et é</w>
esc ri
es ur
entran ce</w>
ent rer</w>
eng ine</w>
en vers</w>
el mo</w>
di shes</w>
de monstr
d board</w>
cô ne</w>
con ven
con ference</w>
comm en
colle ction</w>
coiff ure</w>
clo wns</w>
cla y</w>
cho co
chant euse</w>
celebr ating</w>
car esse</w>
car dboard</w>
cal f</w>
cai sses</w>
cab ine</w>
ca stle</w>
bu ckets</w>
bro om</w>
bou tique</w>
bo isée</w>
bijou x</w>
ben ne</w>
bel t</w>
bass in</w>
bar res</w>
band erole</w>
bal ding</w>
ba l</w>
ba g
b ear</w>
b acks</w>
atta chés</w>
athlè tes</w>
at elier</w>
at a</w>
arro sage</w>
ar me</w>
appr êtent</w>
anniver saire</w>
agenou illée</w>
africa ine</w>
acti vit
accrou pie</w>
- up</w>
ô t</w>
ï s</w>
étudi ant</w>
équip ements</w>
éle ctron
é vier</w>
é pic
y a
wrest le</w>
wh ite-
wh il
whil st</w>
we en</w>
viol ets</w>
vic toire</w>
ver ie</w>
v é</w>
v entre</w>
ur gi
unicyc le</w>
un k</w>
tron ç
traî neau</w>
touri st</w>
to ge</w>
ti gh
thé âtre</w>
ten tes</w>
t is</w>
swimm ers</w>
su l
stri pes</w>
star es</w>
st in
st ack</w>
spra ying</w>
sor tie</w>
smo kes</w>
skat er</w>
se l</w>
se cou
se aux</w>
scen ery</w>
rou es</w>
rin k</w>
refle ctive</w>
re posant</w>
ra sant</w>
r av
r ang</w>
pê cheur</w>
prote sting</w>
pre t
plon ge</w>
pin ata</w>
pi es</w>
ph al
pat au
par tout</w>
pan iers</w>
p ti
p ine</w>
ou ti
onn es</w>
on i
o it</w>
nouveau- né</w>
nourri sson</w>
night time</w>
neck lace</w>
n ous</w>
n i</w>
n asi
nasi um</w>
monocyc le</w>
mini ature</w>
mini -
micro s</w>
mar bre</w>
man de</w>
man che</w>
m a</w>
lon don</w>
lo ween</w>
list ens</w>
li ère</w>
li sent</w>
li qui
lev és</w>
le ar
lampada ire</w>
lam p</w>
la verie</w>
k ni
k ings</w>
ja il
j e</w>
in spect
ille ux</w>
il ity</w>
hou ses</w>
head band</w>
hal loween</w>
h é
gymna stique</w>
gym nasium</w>
grin ding</w>
grim ac
go -
ger ie</w>
ge ste</w>
ge l</w>
g or
fur niture</w>
for d</w>
follo wing</w>
flo ps</w>
fli pping</w>
fl â
fisher man</w>
fire truck</w>
fin ish</w>
fin ger</w>
fil m</w>
fi l</w>
exp éri
exp lo
exam inant</w>
ex écu
emer gency</w>
embra sure</w>
dégu isés</w>
du ck</w>
do ctor</w>
discu ssing</w>
dis pu
di m
dess in</w>
de dans</w>
de ad</w>
d ic
d ges</w>
cu ts</w>
cre w</w>
couv re-
contr ôle</w>
compu ters</w>
com pl
color ing</w>
cob ble
clu t
circu lant</w>
chi ot</w>
ch âteau</w>
ch ou
cat cher</w>
can al</w>
can a
ca ss
c ess</w>
brou ette</w>
bri que</w>
bre t
box er</w>
bow ls</w>
bor n</w>
bon nets</w>
blon des</w>
blo ws</w>
ben e
barre l</w>
ban deau</w>
ban de</w>
balan ces</w>
baig noire</w>
b om
b its</w>
aéri enne</w>
attra pant</w>
arti san
art .</w>
ari um</w>
ar gent
ar a
aqu arium</w>
anci en</w>
am use</w>
africa in</w>
ad or
a partment</w>
- down</w>
élo ignant</w>
électron ique</w>
écri vant</w>
écou tent</w>
écoss aise</w>
xy lo
wor ld</w>
wal mart</w>
wa r</w>
w arm</w>
vol ent</w>
vo ies</w>
ven deurs</w>
u t</w>
u sine</w>
tur ned</w>
tru cks</w>
tran sport</w>
traditi onnel</w>
tra ining</w>
tom b
to ile</w>
to ges</w>
ti mate</w>
ti ed</w>
the ater</w>
tele vision</w>
surroun ding</w>
stair way</w>
ss i</w>
spe ed</w>
sp read</w>
sof a</w>
so ir</w>
so a
ski ers</w>
si des</w>
ser re</w>
sembl ant</w>
se con
scre am
sco laire</w>
sc ra
répar ant</w>
ré pè
ré gi
repa ir
red headed</w>
rais ing</w>
rain y</w>
ra ises</w>
produ isent</w>
proba blement</w>
pot tery</w>
po teaux</w>
po ly</w>
plong ée</w>
plan te</w>
pil low</w>
pi st
photograph ed</w>
per mé
par quet</w>
pa ire</w>
p- flops</w>
over head</w>
outi l</w>
out chou
outchou c</w>
onne ur</w>
ol i
oc keys</w>
obser ving</w>
obje cts</w>
num er
ni ère</w>
netto ient</w>
nag eurs</w>
na me</w>
n ati
mé tier</w>
mounta in
mono poly</w>
moder ne</w>
mo ped</w>
me eting</w>
mat e
mar quer</w>
ma ïs</w>
m ant</w>
loun ging</w>
lif ting</w>
ki mon
ke ep</w>
k ite</w>
jewel ry</w>
j ockeys</w>
j eng
jeng a</w>
is pan
inter vie
inter ag
inten tly</w>
ino cu
indivi du</w>
in é</w>
immen se</w>
im pri
im permé
ill y</w>
ic a</w>
i ques</w>
hor n</w>
hi stor
haut eur</w>
harmon ica</w>
h y
h onneur</w>
h its</w>
h ispan
gr é
gg y</w>
gar ni</w>
fro ide</w>
for aine</w>
fon cti
fol ded</w>
fli p-flops</w>
fl ûte</w>
fire man</w>
figh ter</w>
fi er</w>
fan fare</w>
f in</w>
f arm</w>
escalad ent</w>
entraî nant</w>
engag ed</w>
em ment</w>
electron ic</w>
ele phant</w>
décor é</w>
décontract ée</w>
dé la
dro p</w>
down town</w>
donn er</w>
dis h</w>
din o
de v
de stin
da mes</w>
d ly</w>
cu ire</w>
cu ill
cra ie</w>
cr ème</w>
cr ane</w>
cou che</w>
corn em
com for
col lè
cobble stone</w>
clôtur ée</w>
cla d</w>
cl és</w>
chau ff
chal k</w>
ch ic
ch et</w>
cel u
cein ture</w>
cas ino</w>
car ving</w>
cand les</w>
can ard</w>
cami ons</w>
ca outchouc</w>
c lar
buff et</w>
bro w
bro ken</w>
bro ch
bran ch</w>
br it
bou l
bou gies</w>
bl u
bi es</w>
bene ath</w>
be an
bat ter</w>
bat man</w>
ba s-
ba gu
b inocu
b ing</w>
b by</w>
attra ction</w>
arti stique</w>
arrêt ent</w>
arri vée</w>
ar gen
approa ching</w>
applaudi ssent</w>
anim é</w>
an t
an ces</w>
allong ées</w>
all um
agenou illé</w>
ag ents</w>
ad m
achè tent</w>
achè te</w>
abr i</w>
a spir
&apos; t</w>
œu vres</w>
œ il</w>
ê tres</w>
élé phant</w>
écar tés</w>
é tal
z o
xylo phone</w>
win gs</w>
wi fe</w>
wheel bar
vol er</w>
ven ue</w>
val ise</w>
ur ant</w>
tut u</w>
trun k</w>
tro l
tre m
tra y</w>
tra ins</w>
tra iler</w>
tour ner</w>
tir ée</w>
ti ère</w>
th in</w>
tele phone</w>
team mate</w>
te a</w>
ta ble
t â
t um
stra ight</w>
st are</w>
st ar</w>
ss ed</w>
spot ted</w>
sporti f</w>
sol s</w>
sn ea
sm aller</w>
sli ghtly</w>
shov els</w>
sho w
sha des</w>
sh aved</w>
sh are</w>
ser ves</w>
sen i
se cur
secur ity</w>
sculp tures</w>
sci ence</w>
sci e</w>
scar ves</w>
sc op
san s-
s éri
s me</w>
s am
réuni ssent</w>
ré col
ru sses</w>
rou ler</w>
ro ws</w>
ri ers</w>
ri ck
rick sha
restau r
rela x</w>
re pair</w>
rapi des</w>
ramass ant</w>
ra quettes</w>
ra ces</w>
qu ille</w>
qu ement</w>
proté ger</w>
produ isant</w>
pro t
pret ty</w>
pre sent</w>
prati quent</w>
practi ces</w>
pou pée</w>
pos ées</w>
pon y
po nais</w>
plu mes</w>
pla ces</w>
pist ol
pige on</w>
perform ers</w>
per c
pen chée</w>
pel let
pe ering</w>
pat ri
pass ants</w>
participat e</w>
parti ally</w>
parta gent</w>
parta geant</w>
par ent</w>
pag aie</w>
padd le</w>
pa ga
p ér
p ack</w>
or e</w>
ong st</w>
on ce</w>
om s</w>
ol es</w>
od d</w>
o -
numer ous</w>
new born</w>
n œu
n in
médec in</w>
mouv ements</w>
met tent</w>
mel ons</w>
mat erial</w>
ma c</w>
m ène</w>
m y</w>
m un
m au
m ass
lè vres</w>
loun ge</w>
liqui de</w>
liqu id</w>
li e</w>
legg ings</w>
lea ds</w>
le quel</w>
le cture</w>
la ver</w>
kit esur
ja ponais</w>
is ation</w>
ir on</w>
inté re
inter e
inspec te</w>
i geant</w>
i f</w>
i age</w>
hu g</w>
grav issant</w>
gg ed</w>
ge stes</w>
gar é</w>
ga r</w>
g ement</w>
fémin in</w>
fris és</w>
for ward</w>
follo ws</w>
flow ered</w>
flo tte</w>
fli ps</w>
fi el
fer rée</w>
fen êtres</w>
fal ls</w>
f ati
f ar
ex térieure</w>
escri me</w>
entour és</w>
eng in</w>
en- ciel</w>
en th
en ed</w>
en com
embra sser</w>
e ils</w>
e f</w>
détend ent</w>
dé garni</w>
dé fen
dé coupe</w>
du sk</w>
dre sse</w>
dom in
discu te</w>
dess inant</w>
desc ent</w>
de x</w>
de sig
de li
dau ds</w>
da y
d enti
câ bles</w>
cu p
cu e
cri e</w>
creu sant</w>
cray ons</w>
cray on</w>
craf ts</w>
cra w
cr âne</w>
cow boys</w>
cou teau</w>
contro l</w>
constru isant</w>
con gre
com posé</w>
col lants</w>
co ol
co ck
cli ent</w>
chau d</w>
ch â
cer ceau</w>
cau se</w>
casu al</w>
car ess
camer as</w>
cal m</w>
cal led</w>
c are</w>
c ans</w>
c -
c- en-ciel</w>
by stand
bra cel
bon bons</w>
blo w</w>
bl ea
binocu lars</w>
bill board</w>
be en</w>
bar ber</w>
baller ina</w>
ba dauds</w>
b és</w>
au ssi</w>
assem bl
asi e</w>
as phal
ar c-en-ciel</w>
appar eils</w>
am ongst</w>
air borne</w>
ag ite</w>
adverti sing</w>
ac t
abr up
a band
é la
é gal
égal ement</w>
z ing</w>
woo d
wheel ie</w>
wea ther</w>
we aving</w>
wake board</w>
wa ding</w>
w arm
vic es</w>
verdo y
u si
u pon</w>
tro ph
tri co
tri bal</w>
tow er</w>
tou ches</w>
tom bant</w>
ti en</w>
ther ed</w>
ten ding</w>
tea ching</w>
tatou é</w>
t v</w>
t ement</w>
sup port</w>
sup por
ste el</w>
st ill</w>
st ate</w>
ssi ons</w>
spla shes</w>
spi der
so on
snea kers</w>
sk ie</w>
shop s</w>
sha kes</w>
sh ining</w>
sh ine</w>
ser vant</w>
sem i-
scienti fique</w>
savou re</w>
sar is</w>
sans- abri</w>
sal es</w>
s wa
s ni
s le</w>
s illy</w>
réuni on</w>
régi on</w>
ru bs</w>
rou ille</w>
rollerbla ding</w>
rollerbla des</w>
ro d</w>
ricksha w</w>
reç oit</w>
retourn ant</w>
repair ing</w>
repa irs</w>
ren ver
recei ving</w>
rain bow</w>
ra dio</w>
r ure</w>
py ra
pu sh</w>
profess eur</w>
pra ying</w>
po p
pne us</w>
pla cing</w>
pl ying</w>
pir ate</w>
pin g-
pil ot
pic s</w>
perc euse</w>
pen chant</w>
pe a
pat in</w>
passen ger</w>
parti r</w>
p leurs</w>
over weight</w>
or der</w>
onne use</w>
onn ant</w>
on -
olympi ques</w>
oc key
obstac les</w>
o ti
o dle</w>
nuage ux</w>
navi gu
nag er</w>
mu sc
mou sse</w>
monta g
montag ne
moder n</w>
mi -
mex ic
mat es</w>
ma sco
m è
m oun
m on</w>
m es
lo go</w>
l umin
l -
k in</w>
jo b</w>
iz ing</w>
inter acting</w>
impermé able</w>
hôte l</w>
hom eless</w>
h ockey
gu é</w>
gu ide</w>
gu ards</w>
gro sses</w>
gr ille</w>
go û
glo ve</w>
glaci er</w>
gla cée</w>
gi ft</w>
gar és</w>
gar d
g uns</w>
g un
g rue</w>
g ile</w>
forest ier</w>
flu te</w>
fire men</w>
fa ke</w>
f- volant</w>
f ic
ex ten
entraî nent</w>
enth usi
e ds</w>
dé part</w>
dé cou
dr ill</w>
dou gh</w>
don key</w>
doc ument</w>
diver ses</w>
destin ation</w>
de use</w>
da d</w>
d ying</w>
d um
d it
cuisin ière</w>
coéqui pier</w>
coo k</w>
contre bas</w>
consi sting</w>
con tenant</w>
con fet
compan y</w>
commen cer</w>
coa ster</w>
cla ire</w>
chor ale</w>
chir urgi
chin a</w>
cher chant</w>
che ck</w>
char rette</w>
char ac
cha in
ch ées</w>
cer f-volant</w>
car ry</w>
car e
car ds</w>
cam el</w>
ca ps</w>
ca kes</w>
c y
bur gers</w>
bull do
bul le</w>
brill ante</w>
bou ée</w>
bou eux</w>
bor deaux</w>
boo k
blou ses</w>
bl oo
bi king</w>
bat t
bas- côté</w>
bar rier</w>
bar il</w>
ba c</w>
b in</w>
b il
aut umn</w>
atten te</w>
athle tes</w>
ath lé
aspir ateur</w>
argen té</w>
an gel</w>
americ a</w>
am ie</w>
all ure</w>
ai sle</w>
admir ing</w>
accom pag
abrup te</w>
a der</w>
étre ignent</w>
éto ile</w>
écr ire</w>
è le</w>
z en</w>
z ar
y way</w>
y on</w>
y ar
wheelbar row</w>
water way</w>
water front</w>
war es</w>
w as</w>
v u</w>
v el
ur g
un u
unu su
ul timate</w>
tu bes</w>
tri b
tar get</w>
tal ent</w>
ta ch
t ted</w>
t ires</w>
swee ps</w>
surve ille</w>
sur éle
sur poids</w>
stu dying</w>
stre et
stom ach</w>
stic s</w>
spo on</w>
soci été</w>
sni ff
sin gle</w>
simi lar</w>
si ve</w>
shor t-
sh in
ser ve</w>
sel y</w>
sel e
scream ing</w>
sc ri
sav our
sau vage</w>
s la
s l
s ack</w>
retrie ver</w>
ren i
rela x
re bon
ray és</w>
r és</w>
r ange</w>
r ally</w>
pê cher</w>
pê chant</w>
pé dal
pâ le</w>
pre mière</w>
po ê
po terie</w>
pl ô
ph a
per ru
per ron</w>
pein ts</w>
pe lo
para sols</w>
padd les</w>
pa l</w>
ori enta
orienta le</w>
op ard</w>
onn er</w>
offic ial</w>
obser ves</w>
nu ages</w>
nag eur</w>
mél an
mun ici
mu g</w>
mout ons</w>
mout on</w>
mor ceaux</w>
mo iti
moiti é</w>
mer chand
merchand ise</w>
me ssy</w>
manife stants</w>
magas ins</w>
ma inten
m ur
lon dres</w>
lo ad</w>
lif ted</w>
li gnes</w>
let tres</w>
lear ning</w>
lea d</w>
le ot
lap tops</w>
land ing</w>
la ve</w>
la ires</w>
l ée</w>
kni fe</w>
kn it</w>
k ly</w>
just au
justau corps</w>
jum elles</w>
ju ice</w>
jou é</w>
je tant</w>
jail li
j us</w>
j ave
ing ton</w>
in térieure</w>
in d
impre ssi
hu t</w>
hockey eurs</w>
high -
hand ing</w>
gymna stics</w>
gun dy</w>
grocer ies</w>
grimac es</w>
greyh ound</w>
gli sser</w>
gest ures</w>
gar ée</w>
g ère</w>
g re</w>
g all
fr ère</w>
fore head</w>
fle uri
fle ur
fashi oned</w>
farm er</w>
f illing</w>
ey e
expre ssion</w>
exhi bit</w>
exerc ise</w>
exam ines</w>
ess u
ess enti
escal ader</w>
es pag
envir on</w>
enter ing</w>
enf lam
en regi
em bar
eg gs</w>
ea st</w>
dé bris</w>
du st</w>
dri ve</w>
dor ée</w>
dispu tent</w>
dis ant</w>
dir igeant</w>
dim ly</w>
di plô
di a
dess ine</w>
dess er
de m
de bris</w>
custom er</w>
cuill ère</w>
cu ps</w>
cro ix</w>
coun tr
cornem use</w>
con ce
comm and
com es</w>
co t
cla pping</w>
cigar ettes</w>
chi ots</w>
che ts</w>
che er</w>
che cks</w>
che -
char geant</w>
chain saw</w>
ch è
ceremon y</w>
cat ed</w>
car ts</w>
cana di
cad die</w>
c lean
bé bés</w>
bystand ers</w>
bur gundy</w>
brow sing</w>
bret elles</w>
bou les</w>
bo r</w>
blea chers</w>
bit u
bi zar
bi e</w>
basket teurs</w>
bal ayant</w>
ba ins</w>
ba d
b ite</w>
b elles</w>
b are</w>
autom ob
atten ding</w>
at tle</w>
assi ettes</w>
arm ée</w>
appréci ent</w>
ap plying</w>
am ent</w>
ai dent</w>
acrobati e</w>
a mar
év ent
étro ite</w>
épou x</w>
écu me</w>
écr ans</w>
écoss ais</w>
éclair age</w>
éclabou ssant</w>
é ra
é pai
â teaux</w>
zo o</w>
z om
yar n</w>
y side</w>
y e</w>
wrest ler</w>
wra p</w>
wr it
win d
wil d</w>
wat ched</w>
w on
w ning</w>
w ires</w>
vis iting</w>
viol ettes</w>
ver ti
v ement</w>
ump ire</w>
ul ement</w>
u rer</w>
tw ork</w>
tw i
tu ellement</w>
tronç onneuse</w>
tri p</w>
trave ling</w>
tor ch</w>
ton deuse</w>
tomb ée</w>
to ssing</w>
tigh ts</w>
ti red</w>
thum bs</w>
th é</w>
th in
ter rier</w>
tea l</w>
te en</w>
tack le</w>
ta m
t ation</w>
séri e</w>
suspend ue</w>
sur g
super man</w>
sup pli
suit case</w>
sty lo</w>
stor es</w>
st ops</w>
st oc
sporti ve</w>
spea k</w>
span ish</w>
sous- vêtements</w>
sou de</w>
sor tir</w>
soon ers</w>
som bres</w>
snow suit</w>
snow shoes</w>
situ é</w>
shop pers</w>
sho re
shore line</w>
shir ted</w>
shado ws</w>
sen ting</w>
secon d</w>
se ulement</w>
se ssion</w>
se em</w>
se c
se attle</w>
scop es</w>
s pat
s .</w>
ro of
rela ge</w>
recor d</w>
re- ville</w>
re tourne</w>
re fl
ray on</w>
ram asse</w>
ram ant</w>
ra ment</w>
pup pies</w>
pul véri
pu pit
pu b</w>
présen te</w>
pre sque</w>
pre senting</w>
prati quant</w>
pouss e-
pousse- pousse</w>
por che</w>
pony tail</w>
pom mes</w>
pom me</w>
poign ée</w>
po wer</w>
po tat
plonge oir</w>
pla ts</w>
piè ces</w>
pil lows</w>
pig tails</w>
pic ks</w>
pi que</w>
peu t</w>
pe l</w>
pe ignent</w>
patter ned</w>
patin eurs</w>
paper work</w>
pa piers</w>
pa ge</w>
p ump
op ens</w>
olym pics</w>
off -
o w
o k
nuage use</w>
nouv ellement</w>
nouv eau</w>
nombre use</w>
no te
news papers</w>
new ly</w>
n ie</w>
n ail</w>
mél ange</w>
mou sta
motor cyclists</w>
montgolfi ère</w>
mo vie</w>
mo tion</w>
min ton</w>
mi d-
mi ami</w>
mate las</w>
mar k</w>
mainten ance</w>
m és</w>
long-slee ve</w>
lo ve</w>
lo gs</w>
lo cation</w>
lo cated</w>
list en</w>
li ps</w>
li on</w>
lea f</w>
le gos</w>
laun drom
laundrom at</w>
lar ed</w>
la ine</w>
kne es</w>
k is</w>
k -
jong lant</w>
jar din
iti es</w>
instal lant</w>
inspec ts</w>
inform ation</w>
indi ennes</w>
inc line</w>
in ju
id st</w>
i stes</w>
hé li
high way</w>
herbe ux</w>
hea ding</w>
ha che</w>
gu l
gu er
grav it</w>
gi ve</w>
gen ou</w>
gar ées</w>
gal erie</w>
ga mes</w>
g en</w>
four rure</w>
for ces</w>
focu sed</w>
fire fighter</w>
fini shed</w>
fi ques</w>
fa r</w>
fa ir
f it
ex posé</w>
essay er</w>
er ia</w>
envelop pé</w>
entre tien</w>
engag és</w>
en la
emp il
e ff
e es</w>
dépla çant</w>
dé p
dé f
dra gon</w>
dou ble</w>
dor ment</w>
dol l</w>
do t</w>
dis que</w>
di ver</w>
de sign</w>
de mo
cyc ling</w>
cross ed</w>
cro isés</w>
cre ek</w>
couver tures</w>
cour te</w>
countr yside</w>
cou vre</w>
cou ps</w>
corpul ent</w>
coo ks</w>
constru ire</w>
con tem
con diti
comple te</w>
co vers</w>
co stum
ci ble</w>
cho isi
chic ken</w>
chi ps</w>
che ek</w>
chat ting</w>
char gement</w>
cham eaux</w>
chal k
ch all
ch -
cent re-ville</w>
cell o</w>
casu ally</w>
car relage</w>
can yon</w>
can ot</w>
can -
can- american</w>
c il</w>
bur ning</w>
bulldo zer</w>
bu reaux</w>
bu cks</w>
bri cks</w>
break dance</w>
bracel et</w>
br û
br ée</w>
boul der</w>
bou clés</w>
bor dure</w>
bom be</w>
bo ls</w>
bo dy
blan kets</w>
bl ur
bever ages</w>
bean ie</w>
be ig
bambo o</w>
bai ssée</w>
bagu ettes</w>
bag pipes</w>
bad minton</w>
b iting</w>
av i
av an
automob ile</w>
atta chée</w>
ati f</w>
ass es</w>
as per
arr ang
ar twork</w>
ar gile</w>
ar che</w>
aqu a</w>
appu yant</w>
ap prend</w>
an n
am idst</w>
alle yway</w>
align ées</w>
al li
al lant</w>
afri can-american</w>
adolesc ente</w>
adju sting</w>
ack ed</w>
accrou pit</w>
accom pan
1 0</w>
étudi e</w>
éto ffe</w>
épic erie</w>
élé v
écol iers</w>
é ten
é te
é graph
é che
éche cs</w>
z es</w>
wh om</w>
wash er</w>
w ai
voy age</w>
voil ier</w>
vis it
violon celle</w>
ve ston</w>
v in
v et
v endent</w>
v alley</w>
under wear</w>
tu ba</w>
trol ley</w>
traditionn elle</w>
tourno i</w>
tourn é</w>
tou chant</w>
tiss er</w>
tin y</w>
thum b</w>
tend ant</w>
te ens</w>
tal es</w>
tack ling</w>
tach eté</w>
ta in</w>
t ère</w>
t ai
swim suits</w>
suspend ers</w>
surg ery</w>
suppli es</w>
sun light</w>
str ange</w>
sta ff</w>
st il
st acked</w>
sprink lers</w>
spider man</w>
spe ct</w>
soc ial</w>
sign al
si ble</w>
sho e
sh ar
ser ies</w>
se par
saut é</w>
sai sit</w>
s és</w>
s pr
s by</w>
réfléchi ss
ré ce
ron de</w>
roller skating</w>
ro w
ro bo
ri ve</w>
rempl is</w>
religi euse</w>
refl et</w>
re ste</w>
re poser</w>
re cl
ray ed</w>
rapi ds</w>
ra ssemble</w>
ra ser</w>
ra cers</w>
prin ted</w>
pre ss
poussiére ux</w>
pour suit</w>
pos te</w>
pos ed</w>
pon s</w>
po or</w>
plu part</w>
plong eur</w>
pli ante</w>
play fully</w>
plan ting</w>
pla qué</w>
pla ced</w>
pilot es</w>
pil ot</w>
pil es</w>
pier cing</w>
pha se</w>
ph ants</w>
personn el</w>
per les</w>
pat ch</w>
passer sby</w>
partici pants</w>
par all
pa quet</w>
on ing</w>
oli ve</w>
occu pe</w>
obser vant</w>
o x
o k</w>
navig ue</w>
nav ire</w>
na ge
n é
munici pal</w>
mu st
mu scu
moy en-
motor ized</w>
mor ning</w>
mor d</w>
mo wer</w>
mo p</w>
mo ck</w>
micro scopes</w>
mexic an</w>
mex ica
meu te</w>
meu bles</w>
me et</w>
mar i</w>
mar ch</w>
manipu le</w>
man eu
m ol
m med</w>
m is</w>
m aid</w>
lév riers</w>
loo m</w>
lo w
lin k</w>
ligh ted</w>
lif ts</w>
lea gue</w>
le ts</w>
lar ger</w>
lanc é</w>
la y
la bra
kimon os</w>
kha kis</w>
kaya king</w>
jou euses</w>
j ack</w>
it és</w>
it ation</w>
it al
invol ving</w>
invol ved</w>
inté gra
inju red</w>
in t
impri mé</w>
immeu bles</w>
ill ard</w>
ic s</w>
i pod</w>
i en</w>
hot dogs</w>
hot dog</w>
hi ke</w>
haut -
hai e</w>
h ills</w>
h a</w>
gé ante</w>
gra y
gobel ets</w>
gaz es</w>
gag ner</w>
ga thers</w>
g âteaux</w>
fri and
fre e
flo ats</w>
fleuri e</w>
fl é</w>
fini shing</w>
fil me</w>
fashi on</w>
farm ers</w>
exam inent</w>
ex tré
essenti ellement</w>
espag no
envir onnement</w>
enthusi a
enthousia stes</w>
enthousia ste</w>
enthousi as
enthousias me</w>
en- dessous</w>
ele v
dépla cent</w>
dégu isé</w>
dé tend</w>
dé couper</w>
dé chets</w>
du sty</w>
dra wn</w>
din er</w>
di ves</w>
de partment</w>
d ump
d one</w>
d les</w>
d i</w>
cu te</w>
ct ures</w>
ct ors</w>
crou ched</w>
cr ée</w>
couvre- chef</w>
cou ss
cou chée</w>
con centre</w>
colli e</w>
col um
col onnes</w>
col lines</w>
col lared</w>
co p</w>
clo sely</w>
clar in
circu le</w>
circu lar</w>
chor égraph
chop ping</w>
chev al
che urs</w>
cham eau</w>
chall en
chalk board</w>
ch u</w>
ch ette</w>
ch ess</w>
celu i</w>
celebr ation</w>
cel lu
ce p
caval iers</w>
care fully</w>
car go</w>
can ette</w>
cal me</w>
ca pot</w>
c élé
c élè
c é</w>
but ter
buil t</w>
bro ther</w>
br ant</w>
bon ne</w>
black -haired</w>
ber et</w>
be aux</w>
barri ères</w>
ban nière</w>
baller ine</w>
back drop</w>
ba scule</w>
b one</w>
at ely</w>
artif ici
arrière- cour</w>
ar ch</w>
affron tant</w>
adver ses</w>
adm ire</w>
ac ier</w>
a ines</w>
a iles</w>
œu f</w>
ét ire</w>
éri que</w>
épai sse</w>
écou ter</w>
échafaud ages</w>
éch asses</w>
é tabl
é pa
épa is</w>
é mer
é je
è s-
y si
wr ites</w>
work shop</w>
work out</w>
wheel er</w>
wal ked</w>
wa ï
wa shes</w>
w ind</w>
w ill</w>
vol k
volk swa
volkswa gen</w>
visi bles</w>
vi ennent</w>
verdoy ante</w>
ve way</w>
ve use</w>
vacu um
vac ances</w>
v us</w>
v ra
v ont</w>
v as</w>
v allée</w>
up ward</w>
unusu al</w>
u sa</w>
u k
tw ir
tri ste</w>
travail leur</w>
transpor tation</w>
tran quille</w>
tra sh
trash can</w>
tra ck
tr ench</w>
tourn ament</w>
tou ch</w>
tor ches</w>
ton d</w>
todd lers</w>
to oth
ti ssant</w>
th way</w>
th an</w>
tex to</w>
tend us</w>
tech nique</w>
tamb our
ta pant</w>
ta gs</w>
surf s</w>
sui vant</w>
su ite</w>
stro ke</w>
stra pped</w>
stor m</w>
stil ts</w>
stea ks</w>
ste pping</w>
st oo
st all</w>
ssi ère</w>
squ e
spea ker</w>
sp é
sp rayed</w>
som br
sombr er
so yeux</w>
sli p</w>
ski es</w>
signal isation</w>
side ways</w>
si ro
shin y</w>
shado w</w>
sha w
sha pe</w>
ser veuse</w>
secou e</w>
sea gul
sco t
scaff old</w>
sar celle</w>
salu ant</w>
s è
s ques</w>
s cho
réuni es</w>
répè te</w>
répar ent</w>
réfléchi ssant</w>
ré al
roof top</w>
robo t</w>
road side</w>
restaur ation</w>
ren aiss
renaiss ance</w>
rem p
remp lit</w>
refle ction</w>
recor ding</w>
re vêtement</w>
re ts</w>
re grou
re ct
rap pel</w>
r it
que sti
qu oi</w>
qu ic
quic kly</w>
qu eur</w>
qu elle</w>
pér illeux</w>
pupit re</w>
pun ch</w>
pu zz
pré la
produ cts</w>
pro ches</w>
pro che</w>
pro cess</w>
pour pre</w>
pou let</w>
por t
pon ton</w>
poin tant</w>
po s</w>
po ing</w>
po che</w>
pla isi
plaisi r</w>
pistol et</w>
photograph es</w>
ph ysi
per du</w>
pel lette</w>
pein te</w>
pee king</w>
pe ig
patin eur</w>
pass i
parachu tes</w>
para sailing</w>
pa thway</w>
pa le</w>
pa ds</w>
p ôt</w>
p um
p rou
p per</w>
ouv rant</w>
oun ds</w>
ou lière</w>
ot a</w>
ore iller</w>
op ter</w>
ong ings</w>
on e
od les</w>
obsc urité</w>
o p</w>
o bam
obam a</w>
nœu d</w>
nur ses</w>
num bers</w>
nouv elle</w>
no te</w>
ni ke</w>
netto y
ne ws</w>
ne e
n y
n ue</w>
mu le</w>
moyen- orient</w>
moy enne</w>
montagne ux</w>
monit or</w>
mo o
mo ins</w>
mo d
mix er</w>
mit ou
min ce</w>
mi ères</w>
mess age</w>
me dium</w>
ma y
m ité</w>
lo bby</w>
lin gerie</w>
ligh ting</w>
li ber
leot ard</w>
lea p</w>
la den</w>
la ces</w>
l ens</w>
kitesur f</w>
kick boxing</w>
k ie</w>
ju ggles</w>
jol i</w>
jo ie</w>
it e
instru ctions</w>
inspect ent</w>
ing ed</w>
in gré
ingré dients</w>
impli qu
ill ées</w>
ic opter</w>
héli cop
hélicop tère</w>
hu dd
hot -
hot- dog</w>
high chair</w>
hi ding</w>
hel icopter</w>
heav ily</w>
head dress</w>
har d
hand rail</w>
hand ica
ha waï
ha bits</w>
gre en
gray -haired</w>
grat te</w>
go at</w>
gest ure</w>
gaz e</w>
gard ening</w>
gar de</w>
gall ery</w>
ga p</w>
g ed</w>
g an</w>
fur ry</w>
fro zen</w>
fr om
foo ds</w>
fol iage</w>
fo is</w>
fleur i</w>
fix es</w>
fin ir</w>
fer me</w>
fac ility</w>
f ur</w>
expéri ence</w>
exper iment</w>
essay e</w>
ess aient</w>
es a
es -
entre pôt</w>
entre prise</w>
ent ly</w>
embra cing</w>
em mitou
ear phones</w>
e ver
e ven</w>
dép loy
déla bré</w>
défil ent</w>
dé sor
dé mar
dé coupant</w>
dump ster</w>
dri veway</w>
do ss
dis plays</w>
dis playing</w>
dis played</w>
dis ney</w>
dig ital</w>
di ve</w>
demo is
decor ative</w>
de u
de sm
d un
d al</w>
curi eux</w>
cur r
cuisin er</w>
cre ating</w>
cr ates</w>
couv rant</w>
cot ton</w>
corpul ente</w>
contra ption</w>
con tin
con for
con cours</w>
compl et</w>
comm unic
com pag
com mande</w>
coiff e</w>
co ver</w>
co le</w>
co l</w>
co ca
coca -
coca- cola</w>
clut tered</w>
clou ds</w>
clo s</w>
classi c</w>
cit ron</w>
ci gar</w>
ci er
chu te</w>
chorégraph ie</w>
chi ff
che wing</w>
che ese</w>
chari ots</w>
char ge</w>
cham pagne</w>
cha r</w>
ch o</w>
ch ine</w>
ch asse</w>
certa in</w>
celebr ate</w>
car ic
can vas</w>
camer a
cam els</w>
ca st</w>
c té</w>
butter fly</w>
but ton
bur ger</w>
bru shes</w>
bri desm
bra ss</w>
boî tes</w>
box e</w>
boo ths</w>
bon go</w>
bo b</w>
bloo d</w>
blo c</w>
ble ssé</w>
bi ères</w>
bel ts</w>
bel ongings</w>
band oulière</w>
balan cent</w>
bal ay
bai ser</w>
b ét
b in
b bing</w>
av er
attend re</w>
ati ques</w>
athlé ti
at ors</w>
assi stant</w>
asphal te</w>
asi ans</w>
asi a</w>
artif ice</w>
arr ing</w>
argent ée</w>
ar mes</w>
apr ès-
apr ons</w>
approa ches</w>
ap pel
am ish</w>
ai ds</w>
agri cul
afro- américains</w>
af ter
adju sts</w>
ad v
activit y</w>
accrou pis</w>
a part</w>
a ju
a c</w>
1 1</w>
- like</w>
évent ail</w>
ét ir
épou se</w>
é tal</w>
é pon
é par
é chauff
è ques</w>
â nes</w>
zz y</w>
z i
y o</w>
xi ème</w>
wi g</w>
wel l-
we igh
wash ington</w>
w are
ware house</w>
vérifi e</w>
visi ère</w>
vie illes</w>
vi se</w>
vi de
vide o
verdo yant</w>
ven ir</w>
v rant</w>
v ite</w>
urg ence</w>
up set</w>
tw o-
tu x
trou ver</w>
trom bone</w>
tri pod</w>
tre sses</w>
tre at</w>
trans porte</w>
tran sit</w>
tr en
tooth brush</w>
tom bent</w>
til ed</w>
ti ste</w>
ti ps</w>
ti ght</w>
ti cket</w>
te e-
tan te</w>
tabl iers</w>
ta sk</w>
ta le</w>
t une</w>
t in</w>
sé cher</w>
surve illent</w>
sur ing</w>
sur gi
sui vent</w>
stum p</w>
stru ctures</w>
strol ls</w>
str o</w>
stoo p</w>
star bucks</w>
sta bli
ss ées</w>
sque e
spé ci
spr ing</w>
spee do</w>
spee ding</w>
spar ring</w>
spar k
sor ting</w>
soa p</w>
snowboar ds</w>
sniff ing</w>
sn or
sma sh
sle dding</w>
skat eurs</w>
sk im
sig nes</w>
short- haired</w>
sh y</w>
sh ment</w>
sh ag
shag gy</w>
serv ir</w>
ser veur</w>
scou t</w>
scen ic</w>
sc ore</w>
savour ent</w>
sail boat</w>
sa wing</w>
sa d</w>
s ens</w>
ru g</w>
rou lants</w>
ri ver
ri ot</w>
ri fle</w>
rempli ssant</w>
re ux</w>
re spe
re mu
re lea
re ally</w>
ray ées</w>
rassembl ant</w>
rain coat</w>
ra sé</w>
ra b
r itu
r ings</w>
r ines</w>
pun k</w>
pun ching</w>
pump kin</w>
pré sent
prote sters</w>
proje ctor</w>
proje cteur</w>
pro pri
pro chain</w>
prin ci
pri x</w>
pr ête</w>
pr é</w>
pourchass ant</w>
potat o</w>
portra its</w>
pop corn</w>
po p</w>
pic k
photographi é</w>
photograph ers</w>
perru que</w>
percu ssion</w>
pen cil</w>
pelo ton</w>
pein tre</w>
peig noir</w>
pe er</w>
pe an</w>
pe ac
patter n</w>
pat rons</w>
past èques</w>
parti cu
part ition</w>
pan e</w>
pain ter</w>
pain t
pac king</w>
pa d</w>
ore ill
oreill ers</w>
or y</w>
oper ates</w>
op y</w>
on ment</w>
on e-
on d
olympi que</w>
olympi c</w>
ok la
okla hom
oklahom a</w>
obsc ure</w>
o wn</w>
o lo
o is</w>
o eu
nu age</w>
note book</w>
no on</w>
no ix</w>
navigu ant</w>
nap pe</w>
n ic
mê mes</w>
médi év
médi cal</w>
muzz led</w>
muzz le</w>
mousta chu</w>
moto r</w>
monstr ation</w>
mono space</w>
mon key</w>
mon k</w>
mob y
mil l</w>
mid i</w>
mi e</w>
mer ing</w>
me chan
me c</w>
mcdonal d</w>
marchand ise</w>
march and</w>
marath oni
mar m
manife stant</w>
ma î
ma je
ma in
ma gi
m ée</w>
m ouse</w>
m ine</w>
m enant</w>
lév rier</w>
ly -haired</w>
lut tent</w>
lu x
loa ded</w>
li bre</w>
lap in</w>
lanc ent</w>
la vent</w>
la bel
l y-
kno wn</w>
ke e
kaya ki
jum per</w>
jum ped</w>
jour s</w>
jo y</w>
jo gs</w>
jo gg
jardin age</w>
ja pon
itu de</w>
iti ve</w>
iss ement</w>
intégra le</w>
intere sting</w>
inten se</w>
instal le</w>
inspec tant</w>
inform atique</w>
infir mières</w>
industri al</w>
in ha
inha bitu
in gre
ingre dients</w>
in age</w>
impli quant</w>
ille ts</w>
ici en</w>
ic y</w>
i vre</w>
i sh
hy dr
hu s
hu la
haw ai
hand le</w>
han ded</w>
ham burgers</w>
h ut
h op
h en
guitar es</w>
gu m</w>
gra s
gra du
gra bs</w>
gra bbing</w>
gra b</w>
goû ter</w>
gor ge</w>
gol f
gh am</w>
gest uring</w>
ge -
gaz ing</w>
g ères</w>
g in
g ig
g el
fum er</w>
from age</w>
fr ench</w>
for tune</w>
foot ed</w>
fo yer</w>
flâ nant</w>
fi shes</w>
ff s</w>
fer rées</w>
fel l</w>
feat uring</w>
fe ux</w>
f ine</w>
f av
fav or
exécu tent</w>
euro pean</w>
eth ni
es n</w>
envir onment</w>
entr ant</w>
ent er</w>
ense ig
en vo
employ ees</w>
eg g</w>
effectu ent</w>
ear th</w>
e z</w>
e stabli
décor ations</w>
débar deurs</w>
dé monstration</w>
dé li
dé ci
dé ambu
du cks</w>
dra w</w>
dra gging</w>
dr ôle</w>
down hill</w>
dou che</w>
do esn</w>
distribu teur</w>
dir ig
dino sau
deu xième</w>
desser t</w>
dess ins</w>
decor ations</w>
de signs</w>
de er</w>
d urant</w>
d as</w>
cur ly-haired</w>
cu it</w>
ct eurs</w>
crow ds</w>
cro isées</w>
creu sent</w>
couver ts</w>
conta ining</w>
constru it</w>
con ne
cock pit</w>
co ff
co ca</w>
clôtur é</w>
clou d</w>
clean er</w>
ck er</w>
cit iz
circu lent</w>
chè vre</w>
chop sticks</w>
choco late</w>
choco la
chino ises</w>
cher cher</w>
chem inée</w>
chem ent</w>
check ers</w>
challen ge</w>
ch t
cell phones</w>
cein tures</w>
cass erole</w>
caric ature</w>
cani che</w>
canadi an</w>
can nes</w>
can ards</w>
cam éra
cal èche</w>
cal i
ca des</w>
ca b</w>
brou illard</w>
bron ze</w>
bron z
brit ish</w>
break dancing</w>
br unes</w>
box ers</w>
boun cing</w>
bou lan
bon dit</w>
boar ding</w>
blu e-
bizar re</w>
bicyc ling</w>
ber ry</w>
ben ds</w>
beg ins</w>
bea ds</w>
be d
bath tub</w>
barbe cu
balanç ant</w>
ba mb
b illets</w>
b es
b av
bav ar
auto cht
attra ctive</w>
at m</w>
ari de</w>
après- midi</w>
appar tement</w>
and a</w>
an tly</w>
améri que</w>
al most</w>
agri cole</w>
agenou illés</w>
after noon</w>
ador able</w>
adolesc entes</w>
a in
a ille</w>
a ds</w>
0 0</w>
- colored</w>
étro it</w>
étre int</w>
étre ignant</w>
établ issement</w>
épon ge</w>
élé g
électri ques</w>
éch ap
é meute</w>
é cart</w>
è les</w>
z z</w>
ya ma
yama ha</w>
work man</w>
win e
wheel ed</w>
wh i
wh en</w>
water skiing</w>
wait er</w>
wai st</w>
w in</w>
vé g
vég ét
voy ag
vit res</w>
vis or</w>
vin tage</w>
vic tory</w>
vi des</w>
ver dure</w>
ven ding</w>
ve gas</w>
vari et
variet y</w>
v illa
v ette</w>
v au
universit aire</w>
unic ef</w>
under ground</w>
un happy</w>
un g</w>
ul l</w>
u ts</w>
télé phones</w>
tâ che</w>
twi ster</w>
tux e
tu red</w>
tu g-
tug- of
tug-of -
tug-of- war</w>
tré pied</w>
tron cs</w>
tre ad
traî nant</w>
trave l</w>
tra fic</w>
tourn ant</w>
touri ste</w>
tor al</w>
tom ates</w>
to o</w>
to a
ti gre</w>
ti ger</w>
ti ge</w>
ti ers</w>
termin al</w>
ten der</w>
tech no
techno lo
team mates</w>
tax is</w>
tai si
tack led</w>
ta iller</w>
ta il
ta ches</w>
t ying</w>
t itude</w>
synchron ized</w>
suréle vée</w>
surgi cal</w>
sur vêtement</w>
sum o</w>
sui v
sub stance</w>
su cette</w>
sty li
stu ff</w>
stu ck</w>
stri pe</w>
stri king</w>
stret ches</w>
stre am
str y</w>
str on
str ings</w>
str inged</w>
stom ac</w>
ste m</w>
stati onnement</w>
stat ues</w>
st rolling</w>
st rollers</w>
st en
ssi eurs</w>
squee zing</w>
spra ys</w>
spot light</w>
spla shed</w>
spee ds</w>
spe ci
souri ants</w>
souri antes</w>
souff lant</w>
some where</w>
sol o</w>
sli m</w>
skin ny</w>
ski ant</w>
sk ills</w>
situ ée</w>
sin ge</w>
sig ning</w>
si m
shi ft</w>
shel f</w>
sh am
ser vices</w>
seni ors</w>
se urs</w>
se ar
scho ol
scar a</w>
sc rubs</w>
sav on</w>
sau ci
salu ent</w>
sal ue</w>
sai si
sa y</w>
s èche</w>
s pot</w>
s pins</w>
s ils</w>
s ents</w>
s at
réce ption</w>
ru rale</w>
ru gs</w>
rou lé</w>
ron d</w>
roller -
ro quoise</w>
ri z</w>
ri se</w>
retourn é</w>
religi ous</w>
red head</w>
re ur</w>
re turn</w>
re mo
rapi de</w>
ra ining</w>
ra ide</w>
r y-
r y
r all
rall ye</w>
quit te</w>
qui et</w>
qu illes</w>
pâ tiss
puzz le</w>
pur ses</w>
pti ons</w>
prote ct</w>
prot ège</w>
produ ct</w>
pro pre</w>
prepar ed</w>
pr un
poê le</w>
poussiére use</w>
pourchass é</w>
pour s</w>
pou ssent</w>
pon g</w>
po odle</w>
po los</w>
po cket</w>
plu me</w>
plong eurs</w>
plan tant</w>
plan k</w>
pla te
pla quer</w>
pla in</w>
pizz eria</w>
pir ates</w>
ping- pong</w>
photograph ier</w>
ph in</w>
peu pl
pelu che
pe ur</w>
pe ers</w>
pau vre</w>
patin ent</w>
pati emment</w>
pat ron</w>
passag er</w>
pal mier</w>
pai sible</w>
paga yant</w>
pack ed</w>
pack age</w>
pac i
pa y</w>
pa ges</w>
p éri
p py</w>
ounta ins</w>
oun t</w>
ou verts</w>
or né</w>
ong les</w>
om bra
offici elle</w>
occu pés</w>
o v
o ires</w>
nour rit</w>
neu f</w>
navig ates</w>
nap ping</w>
na ils</w>
n un</w>
n es
n er
mâ che</w>
musel ière</w>
muscu lar</w>
mur ky</w>
mu tuellement</w>
mu sta
mu ret</w>
mu rale</w>
mu ch</w>
mountain ous</w>
moun ted</w>
mou ths</w>
monit ors</w>
mid st</w>
mic key</w>
mi x</w>
mi c</w>
mexica in</w>
mem ori
mel on</w>
mea suring</w>
me ssieurs</w>
may be</w>
mat ure</w>
marm ite</w>
mar é
mar in</w>
mani ère</w>
man s</w>
ma y</w>
ma sks</w>
ma scara</w>
ma j
m û
m ess</w>
m ai
lè che</w>
lu i-
lui- même</w>
loo ked</w>
lo wing</w>
lo wer</w>
lo cale</w>
lit toral</w>
li vely</w>
li cking</w>
lanter ns</w>
lanter nes</w>
lam a</w>
labra dor</w>
laborat ory</w>
label ed</w>
la quelle</w>
la ble</w>
l ins</w>
l ands</w>
kne e-
kitch en
kitchen aid</w>
kil ts</w>
ki sses</w>
ki es</w>
ke l</w>
k er
k art</w>
ju ges</w>
ju dges</w>
je ts</w>
ja zz</w>
it eau</w>
is land</w>
is ing</w>
infir mière</w>
inf éri
indi a</w>
in ers</w>
in con
im pos
ill ères</w>
ill ons</w>
ic es</w>
i roquoise</w>
i or</w>
hydr ant</w>
hus band</w>
hula -
hu sky</w>
hu man</w>
hom em
homem ade</w>
her o</w>
hawai ian</w>
hard wood</w>
har ve
ham mock</w>
ham mering</w>
ha mac</w>
ha d</w>
h on
h it
guer re</w>
grin ds</w>
grim pent</w>
graff iti
gr illage</w>
go wn</w>
genou illères</w>
ge ish
gaz onné</w>
gar der</w>
gar de-
ga y</w>
g out</w>
g onnette</w>
fris é</w>
fre sh
fraî che</w>
fr ying</w>
four gonnette</w>
form er</w>
forest ed</w>
for ce</w>
follo wed</w>
focu s</w>
fo am</w>
flâ nent</w>
flan nel</w>
flan elle</w>
flam bo
fit ness</w>
fire works</w>
fin ger
fil ming</w>
fil mer</w>
fil mant</w>
fiel ds</w>
favor ite</w>
fati gué</w>
fan taisi
fac ial</w>
fac e-
f ountains</w>
f at</w>
extré mité</w>
exerc ice</w>
ever y
eth nique</w>
establi shment</w>
essay ent</w>
espagno l</w>
es car
er oles</w>
er ies</w>
entr ent</w>
ent ary</w>
ense ign
enregi stre
enf on
endro its</w>
encoura gent</w>
encom brée</w>
en tra
en lève</w>
en lever</w>
en ces</w>
en cein
encein te</w>
en ca
employ ee</w>
ef fort</w>
ea sel</w>
e stomac</w>
e dly</w>
détend ant</w>
dégu isée</w>
décol le</w>
dé chir
drib ble</w>
dra ws</w>
dra ped</w>
dra inage</w>
dr yer</w>
do w</w>
do tted</w>
dis c</w>
dire cting</w>
dig an</w>
diff ic
desc en
demonstr ation</w>
demois elles</w>
del à</w>
del i</w>
de ser
de mi-
de ere</w>
de ci
day time</w>
dark ened</w>
d unes</w>
câ ble</w>
cuisin ent</w>
cri es</w>
cre ate</w>
cra shing</w>
cr ê
cow- boys</w>
cou pent</w>
cou d</w>
coo kies</w>
conven tion</w>
contre r</w>
constru isent</w>
congre g
confet ti</w>
condu ctor</w>
conditi ons</w>
con tenu</w>
con te
con sul
con fu
comple x</w>
comple ted</w>
compan ion</w>
comm un</w>
comm un
com pris</w>
colum ns</w>
collè gue</w>
col lation</w>
coiff eur</w>
coff re</w>
cit rouille</w>
circu s</w>
circu laire</w>
cigar e</w>
ci v
châ le</w>
chocola t</w>
chi c</w>
cher ry</w>
cher chent</w>
cheerlea ding</w>
char gé</w>
cham ps</w>
ch is
ch ap
ch age</w>
cer ceaux</w>
cat cheur</w>
carri er</w>
car t
car digan</w>
cano es</w>
cand le</w>
camp fire</w>
camera man</w>
cali for
cal mes</w>
ca ses</w>
ca pit
ca hi
ca deaux</w>
ca che</w>
c és</w>
c tant</w>
c ram
c ils</w>
c i</w>
c ave</w>
c all</w>
c ales</w>
bun dle</w>
bun d
bu sh</w>
bu ried</w>
broch ure</w>
bro ssant</w>
bro ad</w>
brill antes</w>
bridesm aids</w>
bri ef
br a</w>
bou gie</w>
bor ds</w>
boar der</w>
bo ston</w>
blo quer</w>
ble u
ber mu
ber ge</w>
beig es</w>
bed room</w>
be cause</w>
bat tle</w>
bare footed</w>
bar tender</w>
bar bus</w>
banan es</w>
banan as</w>
ban ners</w>
bambo u</w>
baller ines</w>
back seat</w>
ba bies</w>
b û
b um
b our
b ac
av en
au- delà</w>
au to</w>
atter rir</w>
atten ti
atte int</w>
atta che</w>
arti sts</w>
arch ite
ar mo
appuy ée</w>
appro chant</w>
appel é</w>
ap prenant</w>
ang els</w>
an neau</w>
am ount</w>
al ing</w>
al cool</w>
al co
agenou ille</w>
ado r</w>
admir ant</w>
activit és</w>
acrobati es</w>
acrobati c</w>
accro chés</w>
accro chant</w>
accompag né</w>
acc ess
ac cep
aband oned</w>
a xe</w>
a des</w>
ô les</w>
ë s</w>
étudi ante</w>
étir ant</w>
éten du</w>
éte indre</w>
étal age</w>
éta gère</w>
ét ait</w>
éro s</w>
épar p
élév ateur</w>
éje cté</w>
échar pes</w>
éc rasant</w>
é tage</w>
é po
épo que</w>
é chant
é b
éb roue</w>
ç a</w>
âg es</w>
z ard</w>
y set</w>
y ou
y ear</w>
x y</w>
writ ten</w>
wrest lers</w>
wra ps</w>
wood land</w>
wil der
wilder ness</w>
wel come</w>
water side</w>
water melons</w>
warm ing</w>
wait re
waitre ss</w>
wa sh</w>
w ere</w>
vérifi ant</w>
végét ation</w>
vol un
volun te
vo irie</w>
vit rines</w>
video ta
vi brant</w>
ver sant</w>
ver ing</w>
ven tion</w>
ve st
vau l
vacuum ing</w>
vacu um</w>
ur ne</w>
up wards</w>
universit y</w>
un a</w>
u ti
u pri
upri ght</w>
télé siège</w>
ty ping</w>
tut us</w>
tur key</w>
trou ble</w>
trot ting</w>
tropi cale</w>
troph ée</w>
troph y</w>
tri o</w>
tren ch-
trench- coat</w>
tread mill</w>
tre ss</w>
tre e-
trave ls</w>
track suit</w>
tr it
trit us</w>
tourn age</w>
tou jours</w>
tou chent</w>
tor t
top less</w>
to w</w>
to e</w>
thé dra
thédra le</w>
thou gh</w>
th y</w>
th i
thi ck</w>
tex ting</w>
termin é</w>
ten ter</w>
ten s</w>
tatou ée</w>
tatou eur</w>
tar p</w>
table aux</w>
ta ines</w>
t uni
sé ment</w>
sé ance</w>
sè che-
sw an</w>
suspend us</w>
surf ers</w>
suppor ters</w>
super market</w>
sun bathing</w>
suiv i</w>
sub mer
sti ques</w>
st ent</w>
st ars</w>
st arring</w>
st air</w>
ssi ve</w>
squat s</w>
squ ir
spectat eur</w>
specta cu
sour cils</w>
sou ti
sou p</w>
sou levant</w>
sou der</w>
sor tent</w>
some body</w>
sombrer o</w>
sol d</w>
soci al
so ig
soig neu
soigneu sement</w>
snow ball</w>
sn acks</w>
slee ves</w>
sla cks</w>
sky line</w>
sky diving</w>
skate -
skate- board</w>
sk et
sk ed</w>
silhou et
silhouet ted</w>
side lines</w>
sho wer</w>
sho ot
shi el
shaw l</w>
sha ke</w>
sh ing
ser rent</w>
separ ate</w>
seni or</w>
sem i</w>
sem ents</w>
sea food</w>
se xy</w>
se ating</w>
scri ptions</w>
scienti st</w>
sc r
sar ç
san g</w>
sa ur</w>
s- unis</w>
s œur</w>
s ph
s ail</w>
répar ations</w>
réfléchiss ants</w>
ru stic</w>
roller skates</w>
rol ls</w>
rol l</w>
roche uses</w>
ro ca
renver sé</w>
ren contre</w>
remu ant</w>
rem et
rece ption</w>
re tire</w>
re sque</w>
re spon
re sort</w>
re por
rav in</w>
rassembl ée</w>
ram ed</w>
rail ings</w>
raf ts</w>
ra g</w>
r d</w>
quit tant</w>
pê chent</w>
pyra mid</w>
pur chase</w>
pup pet</w>
public ités</w>
pu shed</w>
prot è
propri éta
professionn els</w>
professi on
pro pane</w>
pro gre
prin ts</w>
pri ses</w>
pri m
pri ent</w>
pre sents</w>
pr atique</w>
pow er
pouss ettes</w>
pou tres</w>
pou dre</w>
pos session</w>
por té</w>
pon y</w>
polit ical</w>
policem en</w>
poin ted</w>
po ps</w>
po ney</w>
pne um
pli antes</w>
plate forme</w>
pla is
pl ea
pin ceau</w>
pil ier</w>
pic ket</w>
peupl é</w>
personn ages</w>
personn age</w>
pellet euse</w>
pel le
pea ks</w>
pe -
patau ge</w>
pat ins</w>
par ess
par ce</w>
pan se</w>
pan s</w>
pan or
panor am
pain tball</w>
pag aient</w>
p pers</w>
ouvri r</w>
ou te</w>
or oute</w>
or dering</w>
op posé</w>
on ze</w>
offic iers</w>
offic ier</w>
occu pent</w>
obser ver</w>
o ing</w>
o il</w>
nur se</w>
num érique</w>
nu de</w>
nom mé</w>
ni veau</w>
ni che</w>
new ly
newly wed</w>
neck laces</w>
ne use</w>
nati onal</w>
nati on
nat u
nat tes</w>
nam ed</w>
n ine</w>
mé can
musc lé</w>
mu sul
mou illée</w>
moti f</w>
mor t</w>
mor dre</w>
mon ster</w>
mod èle</w>
moby lette</w>
mo wing</w>
mit t</w>
mit aines</w>
mi que</w>
mi ke</w>
mi g
men u
medi e
medie val</w>
mea dow</w>
mcdonal d&apos;</w>
mau v
masco tte</w>
masco t</w>
mari és</w>
mar ker</w>
mar ked</w>
mar ins</w>
mar ble</w>
maqu ille</w>
man œu
magni fiques</w>
ma sques</w>
ma squ
ma quette</w>
m y
m ers</w>
m ati
lumin eux</w>
lu tte</w>
lu sh</w>
lo com
locom oti
lin ing</w>
li me</w>
li fe
li er</w>
lev ée</w>
legg ed</w>
le vel</w>
le opard</w>
lar ds</w>
labor ate</w>
la tin</w>
la tin
la teur</w>
la it</w>
la id</w>
l és</w>
l à</w>
k en
jump suits</w>
jo e</w>
je ter</w>
je t
jave lot</w>
iz e</w>
it ement</w>
interag issent</w>
ing ly</w>
industri el</w>
in visible</w>
in tri
in i
in de</w>
in a
ina chev
illumin ated</w>
ig h</w>
ic ally</w>
i ed</w>
hoo k</w>
hol i
ho e</w>
hispan ic</w>
herbe use</w>
hel met
heav yset</w>
he ar
he al
haut- de-
haut-de- forme</w>
har bor</w>
gui chet</w>
gro tte</w>
greyh ounds</w>
grav issent</w>
grat u
grat tant</w>
gr y</w>
gr ills</w>
gonfla bles</w>
go- cart</w>
gli ding</w>
gg le</w>
gal ets</w>
ga phone</w>
g és</w>
g ling</w>
g et
fu zzy</w>
fru str
frap pé</w>
fran chi
fr ire</w>
fou lards</w>
for k</w>
foncti onner</w>
fon taines</w>
fo ggy</w>
fo g</w>
flot tent</w>
flo ck</w>
flam mes</w>
fla t</w>
fl ou
fil l</w>
fig ur
feu tre</w>
fet ch</w>
fer mier</w>
fel low</w>
fea ther</w>
fe dor
fedor a</w>
fabri que</w>
f ying</w>
f ramed</w>
f ind</w>
explo sion</w>
exerc ising</w>
exerc ices</w>
ex posés</w>
ex pose</w>
ex iting</w>
euro pé
ethni ques</w>
envo yant</w>
entour ées</w>
entour ent</w>
entour ant</w>
enterta in</w>
enta ssés</w>
enseign ante</w>
enseig nes</w>
eng th</w>
enflam més</w>
en lace</w>
en cor
encor e</w>
en clu
enclu me</w>
emmitou flé</w>
em entary</w>
em ball
el ementary</w>
el ed</w>
el der</w>
e vil</w>
e laborate</w>
e fs</w>
dégu isées</w>
défil ant</w>
défen seur</w>
décor ée</w>
déchir é</w>
dé sarç
dy ed</w>
dum p</w>
drom e</w>
dra p</w>
dr ying</w>
donn ent</w>
dol ls</w>
do o</w>
do ctors</w>
discu ss</w>
dire ct
dinosau re</w>
dino saur</w>
di g</w>
dess iner</w>
desig ned</w>
dem and
defen der</w>
de sks</w>
de mande</w>
dd les</w>
da le</w>
da ily</w>
d an</w>
célè bre</w>
cup cakes</w>
cup cake</w>
cuisin iers</w>
cue ille</w>
cré er</w>
cré ation</w>
cross country</w>
cro ps</w>
cre st</w>
craw ls</w>
cr ate</w>
coéqui piers</w>
cow girl</w>
couver cle</w>
couss in</w>
cour bé</w>
condu cting</w>
con test</w>
comple xe</w>
comple ting</w>
com posée</w>
com battant</w>
color fully</w>
collè gues</w>
co con
co co</w>
classi que</w>
cla ir
cl er
citiz ens</w>
cier ge</w>
chin ato
chinato wn</w>
cheval et</w>
cheerlea der</w>
check out</w>
charac ters</w>
charac ter</w>
chand ail</w>
cha sed</w>
cha ine</w>
ch on</w>
ch in</w>
ceremon ial</w>
cellu laire</w>
cas h</w>
cart wheel</w>
car re
car av
cano ës</w>
can non</w>
cal ly</w>
cab ines</w>
ca thédrale</w>
ca the
ca sting</w>
c is
c ats</w>
bâ che</w>
busin ess
bun ny</w>
bu m</w>
bu ggy</w>
bu d
bra ss
br um
boun ds</w>
boulan gerie</w>
bou le
boo gie</w>
bo ws</w>
blur red</w>
blo wer</w>
bl ot
bicyc lette</w>
beg in</w>
be ers</w>
be ating</w>
bat aille</w>
barre ls</w>
bar que</w>
bar ely</w>
ban li
bamb in</w>
bal ais</w>
bai sse</w>
ba y</w>
b end</w>
b eat</w>
b ands</w>
aut oroute</w>
atter rit</w>
atte lage</w>
ati fs</w>
athléti sme</w>
at s-unis</w>
at rice</w>
ascen sion</w>
as king</w>
artisan at</w>
arrêt é</w>
arrang ement</w>
ar rose</w>
aqu atique</w>
applaudi t</w>
an tique</w>
an ne</w>
amu ser</w>
am ér
am ies</w>
am id</w>
alpin istes</w>
alimenta ires</w>
al lu
ain si</w>
af in</w>
adverti sements</w>
ador ned</w>
activ ities</w>
acro bat
accompan ied</w>
accom pli
a wait</w>
a ffe
5 0</w>
- sized</w>
- looking</w>
œ urs</w>
éto iles</w>
éto ff
étoff es</w>
ét u
ét ats-unis</w>
ét at</w>
élé phants</w>
élé gant</w>
élo ignent</w>
éla stique</w>
éclair ages</w>
é tend</w>
é pées</w>
é ment</w>
ç on</w>
zom bies</w>
zom bie</w>
z é
z y</w>
z or</w>
z a
youn g
you ths</w>
y ota</w>
x -
wor ds</w>
with in</w>
wine glasses</w>
wi i</w>
white- haired</w>
whi stle</w>
wheel chairs</w>
wh ole</w>
wh is
well- dressed</w>
wea pon</w>
we stern</w>
water skier</w>
water ing</w>
walk ie</w>
wal kers</w>
w oven</w>
w ish</w>
vra iment</w>
vol ants</w>
vol .</w>
vo ix</w>
vit és</w>
vi et
viet nam
ver nis</w>
ven irs</w>
ve get
val ises</w>
va ches</w>
va b
vab o</w>
v oc
v ation</w>
uni on</w>
un loading</w>
ul tu
ultu euses</w>
u te</w>
u sed</w>
u la</w>
tâ ches</w>
ty ro
tyro li
tyroli enne</w>
ty pique</w>
tuy aux</w>
tur b
turb ans</w>
tum ultueuses</w>
tum bling</w>
tré bu
trou vant</w>
trou s</w>
tro p</w>
trib u</w>
tri m
trim ming</w>
tri cycles</w>
tri angle</w>
tree- lined</w>
tre ssés</w>
tra it</w>
tra ce</w>
tour nent</w>
tort ue</w>
tor che</w>
tom s</w>
tom ato
tomato es</w>
tom at
toil ettes</w>
toa st</w>
to yota</w>
to s</w>
to resque</w>
to irs</w>
ti sse</w>
ti m</w>
ti ckets</w>
tho se</w>
tho scope</w>
th re
th or
tex tile</w>
termin er</w>
tend o</w>
ten ds</w>
tee- shirt</w>
tech n
te x</w>
te ddy</w>
table cloth</w>
ta per</w>
ta ke
ta illant</w>
t ét
t u</w>
t ter</w>
t iles</w>
t ely</w>
synchron isée</w>
sy stem</w>
swor ds</w>
surplom be</w>
surf eurs</w>
sur ge
sun shine</w>
sun dress</w>
su eur</w>
su c
stun ts</w>
stron au
stri ke</w>
stri de</w>
stre a
sto ck</w>
st ir
stir ring</w>
st al</w>
st al
st .</w>
st -
ss ors</w>
ss ante</w>
squ ad</w>
spla sh</w>
spe cial</w>
spat ule</w>
spat ula</w>
sp a</w>
souti en-
soutien- gorge</w>
souff leur</w>
sou venirs</w>
sou ple</w>
sou pe</w>
sou levé</w>
sou lever</w>
sou dure</w>
sor tes</w>
sof t</w>
social izing</w>
so ars</w>
snow man</w>
sn ap
sma sh</w>
sm oo
sm ith</w>
slo pes</w>
slee ve</w>
sl al
sket ch</w>
skateboar ders</w>
sk y-
sk ull</w>
situ ation</w>
simi laire</w>
silhou ettes</w>
si ster</w>
si mul
simul tan
si ff
shou ting</w>
shor ter</w>
shoot er</w>
shing les</w>
shar p</w>
sham po
sh ack</w>
servi ettes</w>
ser ré</w>
secou ri
seagul ls</w>
se esa
se cours</w>
scu line</w>
scr at
sco oping</w>
sci ssors</w>
sc ent</w>
sc atter
scatter ed</w>
sc aling</w>
sauci sses</w>
sau vet
sar i</w>
sam ple</w>
sa una</w>
sa ires</w>
sa ges</w>
s pots</w>
s outh</w>
s out
s nap</w>
s ang
répè tent</w>
ré pé
répé tant</w>
ré confor
ry- go-
ry-go- round</w>
ry th
rub ans</w>
ru sty</w>
ru stique</w>
ru sh</w>
ru ade</w>
rou illée</w>
ron des</w>
rol led</w>
ro o
ro che</w>
river bank</w>
rib bons</w>
ri mmed</w>
ressembl ent</w>
respe cti
reni fle</w>
rempli ssent</w>
remet tre</w>
relax es</w>
rela y</w>
rela is</w>
regrou pés</w>
regi ster</w>
rect an
rectan gu
recou vrant</w>
rece vant</w>
re vers</w>
rav ine</w>
rap pro
ramass er</w>
ramass ent</w>
ram pes</w>
ra zor</w>
ra soir</w>
ra king</w>
ra ise</w>
ra i
ra deaux</w>
r entrer</w>
r ati
quo ti
qu ée</w>
pédal ant</w>
pyra mi
pyrami de</w>
proje ction</w>
proje cteurs</w>
progre ss</w>
profon des</w>
profess or</w>
proba bly</w>
pro venant</w>
pro pped</w>
pro posant</w>
pro pos</w>
pro gra
pro fond</w>
pro chaine</w>
princi pal
principal ement</w>
pri ant</w>
pr être</w>
pr o</w>
power point</w>
pouss er</w>
pou pées</w>
pou lets</w>
positi f</w>
pos t-
porte- documents</w>
por teur</w>
pon cho</w>
pon cho
poncho s</w>
po un
po tier</w>
po pu
po odles</w>
po ni
po ker</w>
po ils</w>
plonge on</w>
plon ger</w>
ple ut</w>
ple d</w>
pit toresque</w>
pit ching</w>
pil lar</w>
pier cin
piercin gs</w>
pi stes</w>
pi d
photograph ing</w>
ph arm
pharm ac
personn els</w>
per ple
per ché</w>
per ched</w>
pel ling</w>
pel les</w>
pe- vent</w>
pe urs</w>
pe ts</w>
pe ach</w>
pay san</w>
pau ses</w>
patri o
pat te</w>
pat ine</w>
paress ent</w>
par tage</w>
par ka</w>
par alle
paralle l</w>
paci fier</w>
p stick</w>
p ride</w>
p anda</w>
ox ford</w>
over look</w>
ou ver
org an</w>
oran gé</w>
or dre</w>
or a
oper ated</w>
op er</w>
op en-
on d</w>
on ary</w>
om ing</w>
om bres</w>
ol lie</w>
ol d-
off- camera</w>
oc cur
oc ca
occa sion</w>
ob tenir</w>
o hi
ohi o</w>
o h</w>
o che</w>
no ses</w>
no m</w>
no ct
noct urne</w>
nin tendo</w>
nin j
night club</w>
ni a</w>
new -
new- york</w>
near ly</w>
navi ga
naviga ble</w>
nage use</w>
n or
mélan geant</w>
médiév ale</w>
médec ins</w>
mé dic
médic aux</w>
mé da
mu slim</w>
mountain top</w>
mou illés</w>
mou ettes</w>
montgolfi ères</w>
mon té</w>
mob il
mo ts</w>
mo ine</w>
mo de</w>
mit tens</w>
min ces</w>
mig non</w>
mi ssing</w>
meu ble</w>
mes h</w>
mer ry-go-round</w>
men us</w>
memori al</w>
me tro</w>
me cs</w>
mcdonal ds</w>
mat ador</w>
mari ach
mariach i</w>
mar sh
mar que</w>
maqu illé</w>
manu el</w>
mannequ ins</w>
manipu lant</w>
make shift</w>
mag ed</w>
ma sculine</w>
ma ine</w>
ma ge</w>
m ise</w>
m is
m ent
ment on</w>
m assi
lé opard</w>
lut teurs</w>
lou pe</w>
lo vely</w>
liqu or</w>
liber té</w>
li v
li ster</w>
li pstick</w>
li cks</w>
lev ées</w>
le i</w>
le go</w>
le an</w>
lan te</w>
lan es</w>
la w</w>
la ve
la vabo</w>
la tex</w>
la pins</w>
la kers</w>
l yc
l our
l es
l ent
l ength</w>
kn itting</w>
kit ty</w>
kio sk</w>
kic ked</w>
kar ting</w>
kar a
k ery</w>
journ al
je wish</w>
je té</w>
jailli r</w>
it ul
it aires</w>
is ed</w>
inter ro
inter net</w>
inten sément</w>
int itul
install ent</w>
inst allée</w>
inform ations</w>
inclu ant</w>
in tes</w>
in scriptions</w>
in ning</w>
in e
in dex</w>
in cro
impos ante</w>
impliqu és</w>
im pro
illa ges</w>
il lo
il led</w>
identi cal</w>
i ères</w>
i ous</w>
i ge
i ence</w>
i di
i ded</w>
hut te</w>
hun ched</w>
hudd led</w>
horiz on
hor s-
hol lister</w>
hol es</w>
histor ique</w>
helmet ed</w>
he arts</w>
hawaï enne</w>
harve sting</w>
hand held</w>
hand bag</w>
h our</w>
h ear</w>
grim per</w>
gratu its</w>
gras ping</w>
gr ès</w>
go wns</w>
go ers</w>
go at
goat ee</w>
glo ved</w>
gir l
gi ven</w>
ger ly</w>
ga z</w>
g i</w>
g ger</w>
g au
fu ri
fro g</w>
friand ise</w>
fraî chement</w>
fran ç
four -
form ing</w>
form ations</w>
forest ière</w>
for mes</w>
foncti onne</w>
fol low</w>
fo u</w>
fo ssé</w>
flu ore
flow ery</w>
